{"version":"1.0","truncation":null,"padding":null,"added_tokens":[{"id":0,"special":true,"content":"<unk>","single_word":false,"lstrip":false,"rstrip":false,"normalized":false}],"normalizer":{"type":"NFKC"},"pre_tokenizer":{"type":"Metaspace","replacement":"▁","str_rep":"▁","add_prefix_space":true},"post_processor":null,"decoder":{"type":"Metaspace","replacement":"▁","str_rep":"▁","add_prefix_space":true},"model":{"dropout":null,"unk_token":null,"continuing_subword_prefix":null,"end_of_word_suffix":null,"fuse_unk":false,"vocab":{"<unk>":0,"\u0000":1,"\t":2,"\n":3,"\u0013":4,"\u0016":5,"\u0019":6,"!":7,"\"":8,"#":9,"$":10,"%":11,"&":12,"'":13,"(":14,")":15,"*":16,"+":17,",":18,"-":19,".":20,"/":21,"0":22,"1":23,"2":24,"3":25,"4":26,"5":27,"6":28,"7":29,"8":30,"9":31,":":32,";":33,"<":34,"=":35,">":36,"?":37,"@":38,"A":39,"B":40,"C":41,"D":42,"E":43,"F":44,"G":45,"H":46,"I":47,"J":48,"K":49,"L":50,"M":51,"N":52,"O":53,"P":54,"Q":55,"R":56,"S":57,"T":58,"U":59,"V":60,"W":61,"X":62,"Y":63,"Z":64,"[":65,"\\":66,"]":67,"^":68,"_":69,"`":70,"a":71,"b":72,"c":73,"d":74,"e":75,"f":76,"g":77,"h":78,"i":79,"j":80,"k":81,"l":82,"m":83,"n":84,"o":85,"p":86,"q":87,"r":88,"s":89,"t":90,"u":91,"v":92,"w":93,"x":94,"y":95,"z":96,"{":97,"|":98,"}":99,"~":100,"":101,"":102,"":103,"":104,"":105,"":106,"":107,"":108,"":109,"":110,"":111,"":112,"":113,"":114,"":115,"":116,"":117,"":118,"":119,"":120,"":121,"":122,"":123,"":124,"":125,"":126,"":127,"¡":128,"¢":129,"£":130,"¤":131,"¥":132,"§":133,"©":134,"«":135,"¬":136,"­":137,"®":138,"°":139,"±":140,"¶":141,"·":142,"»":143,"¿":144,"À":145,"Á":146,"Â":147,"Ã":148,"Ä":149,"Å":150,"Æ":151,"Ç":152,"È":153,"É":154,"Ê":155,"Ë":156,"Í":157,"Î":158,"Ï":159,"Ð":160,"Ñ":161,"Ò":162,"Ó":163,"Ô":164,"Õ":165,"Ö":166,"×":167,"Ø":168,"Ù":169,"Ú":170,"Û":171,"Ü":172,"Ý":173,"Þ":174,"ß":175,"à":176,"á":177,"â":178,"ã":179,"ä":180,"å":181,"æ":182,"ç":183,"è":184,"é":185,"ê":186,"ë":187,"ì":188,"í":189,"î":190,"ï":191,"ð":192,"ñ":193,"ò":194,"ó":195,"ô":196,"õ":197,"ö":198,"÷":199,"ø":200,"ù":201,"ú":202,"û":203,"ü":204,"ý":205,"þ":206,"ÿ":207,"Ā":208,"ā":209,"ă":210,"ą":211,"Ć":212,"ć":213,"Č":214,"č":215,"ď":216,"Đ":217,"đ":218,"Ē":219,"ē":220,"ĕ":221,"ė":222,"ę":223,"ě":224,"ğ":225,"ġ":226,"ħ":227,"ĩ":228,"ī":229,"ĭ":230,"İ":231,"ı":232,"ļ":233,"ľ":234,"Ł":235,"ł":236,"ń":237,"ņ":238,"ň":239,"ŋ":240,"Ō":241,"ō":242,"ŏ":243,"ő":244,"Œ":245,"œ":246,"Ř":247,"ř":248,"Ś":249,"ś":250,"Ş":251,"ş":252,"Š":253,"š":254,"ţ":255,"ť":256,"ũ":257,"ū":258,"ŭ":259,"ů":260,"ű":261,"ų":262,"Ÿ":263,"ź":264,"Ż":265,"ż":266,"Ž":267,"ž":268,"Ə":269,"ơ":270,"ư":271,"ǎ":272,"ǐ":273,"ǒ":274,"ǔ":275,"ǧ":276,"ǫ":277,"Ș":278,"ș":279,"Ț":280,"ț":281,"ɑ":282,"ɔ":283,"ə":284,"ɛ":285,"ɪ":286,"ɲ":287,"ɽ":288,"ʃ":289,"ʉ":290,"ʒ":291,"ʹ":292,"ʻ":293,"ʼ":294,"ʾ":295,"ʿ":296,"ˈ":297,"ː":298,"̀":299,"́":300,"̃":301,"̄":302,"̈":303,"Ά":304,"Α":305,"Β":306,"Γ":307,"Δ":308,"Ε":309,"Η":310,"Θ":311,"Ι":312,"Κ":313,"Λ":314,"Μ":315,"Ν":316,"Ο":317,"Π":318,"Ρ":319,"Σ":320,"Τ":321,"Υ":322,"Φ":323,"Χ":324,"Ω":325,"ά":326,"έ":327,"ή":328,"ί":329,"α":330,"β":331,"γ":332,"δ":333,"ε":334,"ζ":335,"η":336,"θ":337,"ι":338,"κ":339,"λ":340,"μ":341,"ν":342,"ξ":343,"ο":344,"π":345,"ρ":346,"ς":347,"σ":348,"τ":349,"υ":350,"φ":351,"χ":352,"ψ":353,"ω":354,"ό":355,"ύ":356,"ώ":357,"І":358,"А":359,"Б":360,"В":361,"Г":362,"Д":363,"Е":364,"Ж":365,"З":366,"И":367,"К":368,"Л":369,"М":370,"Н":371,"О":372,"П":373,"Р":374,"С":375,"Т":376,"У":377,"Ф":378,"Х":379,"Ц":380,"Ч":381,"Ш":382,"Э":383,"Ю":384,"Я":385,"а":386,"б":387,"в":388,"г":389,"д":390,"е":391,"ж":392,"з":393,"и":394,"й":395,"к":396,"л":397,"м":398,"н":399,"о":400,"п":401,"р":402,"с":403,"т":404,"у":405,"ф":406,"х":407,"ц":408,"ч":409,"ш":410,"щ":411,"ъ":412,"ы":413,"ь":414,"э":415,"ю":416,"я":417,"ё":418,"і":419,"ї":420,"ј":421,"ћ":422,"ў":423,"ә":424,"ө":425,"ա":426,"ե":427,"ի":428,"յ":429,"ն":430,"ո":431,"ր":432,"ւ":433,"ְ":434,"ִ":435,"ֵ":436,"ֶ":437,"ַ":438,"ָ":439,"ֹ":440,"ּ":441,"ׁ":442,"א":443,"ב":444,"ג":445,"ד":446,"ה":447,"ו":448,"ז":449,"ח":450,"ט":451,"י":452,"כ":453,"ל":454,"ם":455,"מ":456,"ן":457,"נ":458,"ס":459,"ע":460,"פ":461,"צ":462,"ק":463,"ר":464,"ש":465,"ת":466,"ء":467,"آ":468,"أ":469,"إ":470,"ئ":471,"ا":472,"ب":473,"ة":474,"ت":475,"ث":476,"ج":477,"ح":478,"خ":479,"د":480,"ر":481,"ز":482,"س":483,"ش":484,"ص":485,"ض":486,"ط":487,"ظ":488,"ع":489,"غ":490,"ـ":491,"ف":492,"ق":493,"ك":494,"ل":495,"م":496,"ن":497,"ه":498,"و":499,"ى":500,"ي":501,"َ":502,"ُ":503,"ِ":504,"ّ":505,"ْ":506,"پ":507,"ک":508,"گ":509,"ھ":510,"ی":511,"ە":512,"ܐ":513,"ܝ":514,"ं":515,"अ":516,"क":517,"ग":518,"च":519,"ज":520,"ञ":521,"ड":522,"ण":523,"त":524,"द":525,"ध":526,"न":527,"प":528,"ब":529,"भ":530,"म":531,"य":532,"र":533,"ल":534,"व":535,"श":536,"ष":537,"स":538,"ह":539,"़":540,"ा":541,"ि":542,"ी":543,"ु":544,"ू":545,"े":546,"ो":547,"्":548,"॥":549,"ম":550,"র":551,"ল":552,"া":553,"ি":554,"্":555,"ਆ":556,"ਕ":557,"ਖ":558,"ਗ":559,"ਜ":560,"ਤ":561,"ਦ":562,"ਨ":563,"ਪ":564,"ਮ":565,"ਰ":566,"ਲ":567,"ਵ":568,"ਸ":569,"ਹ":570,"ਾ":571,"ਿ":572,"ੀ":573,"ੁ":574,"ੇ":575,"ੈ":576,"ੋ":577,"ੰ":578,"க":579,"ம":580,"ா":581,"ி":582,"்":583,"ก":584,"ค":585,"ง":586,"จ":587,"ช":588,"ด":589,"ต":590,"ท":591,"น":592,"บ":593,"พ":594,"ม":595,"ย":596,"ร":597,"ล":598,"ว":599,"ส":600,"ห":601,"อ":602,"ะ":603,"ั":604,"า":605,"ิ":606,"ี":607,"ุ":608,"เ":609,"่":610,"้":611,"์":612,"་":613,"།":614,"ཀ":615,"ག":616,"ང":617,"ཅ":618,"ཆ":619,"ཉ":620,"ད":621,"ན":622,"པ":623,"ཕ":624,"བ":625,"མ":626,"ཞ":627,"འ":628,"ར":629,"ལ":630,"ཤ":631,"ས":632,"ི":633,"ུ":634,"ེ":635,"ོ":636,"ྒ":637,"ྟ":638,"ྫ":639,"ྱ":640,"ྲ":641,"ა":642,"ე":643,"ი":644,"ლ":645,"ო":646,"რ":647,"ს":648,"ក":649,"ង":650,"រ":651,"ស":652,"ា":653,"្":654,"ḍ":655,"Ḥ":656,"ḥ":657,"ṃ":658,"ṅ":659,"ṇ":660,"ṛ":661,"Ṣ":662,"ṣ":663,"ṭ":664,"ṯ":665,"ạ":666,"ả":667,"ầ":668,"ế":669,"ễ":670,"ệ":671,"ị":672,"ọ":673,"ồ":674,"ộ":675,"ἀ":676,"Ἀ":677,"ἐ":678,"ὶ":679,"ὸ":680,"ῖ":681,"ῦ":682,"​":683,"‎":684,"‐":685,"–":686,"—":687,"‘":688,"’":689,"‚":690,"“":691,"”":692,"„":693,"†":694,"‡":695,"•":696," ":697,"‰":698,"′":699,"⁄":700,"€":701,"↑":702,"→":703,"↓":704,"↔":705,"∂":706,"−":707,"√":708,"∞":709,"≈":710,"≤":711,"⋅":712,"─":713,"│":714,"═":715,"║":716,"╔":717,"╗":718,"╚":719,"╝":720,"▁":721,"▲":722,"△":723,"▶":724,"◆":725,"●":726,"☀":727,"★":728,"♠":729,"♥":730,"♦":731,"♭":732,"♯":733,"⚽":734,"✨":735,"❤":736,"⠀":737,"《":738,"》":739,"い":740,"う":741,"か":742,"き":743,"し":744,"た":745,"と":746,"な":747,"に":748,"の":749,"は":750,"り":751,"る":752,"ん":753,"ア":754,"イ":755,"ウ":756,"ク":757,"シ":758,"ジ":759,"ス":760,"タ":761,"ッ":762,"ト":763,"ド":764,"フ":765,"マ":766,"ラ":767,"リ":768,"ル":769,"ロ":770,"ン":771,"・":772,"ー":773,"一":774,"三":775,"上":776,"下":777,"不":778,"世":779,"东":780,"中":781,"主":782,"之":783,"九":784,"乡":785,"二":786,"云":787,"五":788,"京":789,"人":790,"仁":791,"代":792,"会":793,"佛":794,"元":795,"光":796,"克":797,"八":798,"公":799,"关":800,"兴":801,"出":802,"刘":803,"利":804,"化":805,"北":806,"区":807,"區":808,"十":809,"华":810,"南":811,"原":812,"县":813,"口":814,"古":815,"台":816,"史":817,"吉":818,"周":819,"和":820,"品":821,"唐":822,"四":823,"国":824,"國":825,"土":826,"地":827,"址":828,"城":829,"塔":830,"士":831,"多":832,"大":833,"天":834,"太":835,"子":836,"字":837,"学":838,"宁":839,"安":840,"宗":841,"定":842,"宝":843,"家":844,"寺":845,"小":846,"尔":847,"山":848,"島":849,"川":850,"州":851,"巴":852,"市":853,"帝":854,"平":855,"年":856,"庄":857,"庙":858,"康":859,"建":860,"张":861,"德":862,"心":863,"悟":864,"成":865,"拉":866,"教":867,"文":868,"新":869,"方":870,"族":871,"旗":872,"日":873,"昌":874,"明":875,"春":876,"會":877,"月":878,"朝":879,"木":880,"本":881,"李":882,"村":883,"東":884,"松":885,"林":886,"桥":887,"正":888,"武":889,"民":890,"水":891,"永":892,"汉":893,"江":894,"沙":895,"河":896,"治":897,"泉":898,"法":899,"波":900,"海":901,"清":902,"湖":903,"源":904,"溪":905,"無":906,"玉":907,"王":908,"生":909,"田":910,"白":911,"的":912,"皇":913,"石":914,"社":915,"神":916,"福":917,"空":918,"立":919,"章":920,"經":921,"红":922,"羅":923,"美":924,"義":925,"聖":926,"自":927,"般":928,"花":929,"若":930,"英":931,"華":932,"营":933,"薩":934,"藏":935,"蜜":936,"行":937,"街":938,"西":939,"路":940,"通":941,"道":942,"遗":943,"郡":944,"部":945,"都":946,"里":947,"金":948,"镇":949,"长":950,"门":951,"阳":952,"阿":953,"陈":954,"陵":955,"集":956,"青":957,"马":958,"高":959,"黄":960,"龙":961,"강":962,"구":963,"국":964,"군":965,"대":966,"도":967,"동":968,"리":969,"봉":970,"사":971,"산":972,"성":973,"시":974,"왕":975,"의":976,"이":977,"정":978,"주":979,"천":980,"한":981,"🇳":982,"🇴":983,"🇷":984,"🌿":985,"🏻":986,"🏼":987,"🏽":988,"🏾":989,"👊":990,"👍":991,"👏":992,"💙":993,"💪":994,"🔥":995,"🖤":996,"😂":997,"😍":998,"🙌":999,"🙏":1000,"er":1001,"en":1002,"▁s":1003,"et":1004,"an":1005,"▁f":1006,"or":1007,"▁i":1008,".\n":1009,"▁d":1010,"▁o":1011,"ar":1012,"▁m":1013,"ti":1014,"▁h":1015,"el":1016,"in":1017,"st":1018,"▁a":1019,"▁v":1020,"▁b":1021,"▁p":1022,"re":1023,"▁k":1024,"li":1025,"om":1026,"ed":1027,"▁og":1028,"on":1029,"le":1030,"▁for":1031,"ke":1032,"▁ti":1033,"te":1034,"al":1035,"▁S":1036,"▁er":1037,"ing":1038,"ter":1039,"▁til":1040,"▁n":1041,"▁g":1042,"ra":1043,"il":1044,"▁t":1045,"▁på":1046,"▁å":1047,"un":1048,"▁D":1049,"▁en":1050,"is":1051,"de":1052,"▁av":1053,"▁det":1054,"eg":1055,"es":1056,"tt":1057,"ag":1058,"▁som":1059,"ør":1060,"sk":1061,"▁l":1062,"ene":1063,"ik":1064,"▁H":1065,"and":1066,"pp":1067,"▁1":1068,"▁M":1069,"am":1070,"▁at":1071,"▁med":1072,"ol":1073,"▁u":1074,"▁F":1075,"▁har":1076,"ge":1077,"▁st":1078,"ver":1079,"▁A":1080,"as":1081,"▁B":1082,"▁-":1083,"▁T":1084,"▁N":1085,"▁sk":1086,"ler":1087,"ri":1088,"ne":1089,"▁et":1090,"ak":1091,"der":1092,"sen":1093,"kke":1094,"▁si":1095,"▁de":1096,"ro":1097,"at":1098,"▁2":1099,"▁in":1100,"▁K":1101,"ste":1102,"▁om":1103,"▁E":1104,"år":1105,"▁I":1106,"▁V":1107,"lig":1108,"00":1109,"ig":1110,"▁L":1111,"▁ikke":1112,"▁P":1113,"se":1114,"▁ut":1115,"ot":1116,"ad":1117,"▁R":1118,"▁den":1119,"▁O":1120,"ei":1121,"▁Det":1122,"▁j":1123,"▁var":1124,"▁men":1125,"jon":1126,"▁fra":1127,"ek":1128,"ang":1129,"us":1130,"▁(":1131,"▁J":1132,"▁r":1133,"ær":1134,"ent":1135,"ser":1136,"▁opp":1137,"ur":1138,"en.\n":1139,"ker":1140,"ul":1141,"ning":1142,"▁han":1143,"▁re":1144,"ok":1145,"▁vi":1146,"ett":1147,"ann":1148,"mer":1149,"ens":1150,"je":1151,"ru":1152,"▁G":1153,"ord":1154,"id":1155,"ere":1156,"▁al":1157,"▁sp":1158,"kt":1159,"▁inn":1160,"▁sier":1161,"sl":1162,"▁kom":1163,"▁gj":1164,"av":1165,":\n":1166,"▁bli":1167,"att":1168,"▁ble":1169,"for":1170,"▁C":1171,"ske":1172,"▁seg":1173,"ap":1174,"▁vil":1175,"▁kan":1176,"est":1177,"▁etter":1178,"kk":1179,"ist":1180,"sp":1181,"ende":1182,"▁må":1183,"ss":1184,"het":1185,"eng":1186,"▁over":1187,"en,":1188,"all":1189,"øy":1190,"▁St":1191,"▁li":1192,"ort":1193,"it":1194,"▁år":1195,"ell":1196,"▁kl":1197,"▁før":1198,"dt":1199,"▁un":1200,"et.\n":1201,"▁sam":1202,"dag":1203,"enn":1204,"▁U":1205,"art":1206,"ikk":1207,"så":1208,"ant":1209,"gg":1210,"oli":1211,"asjon":1212,"▁hel":1213,"▁skal":1214,"ut":1215,"me":1216,"er.\n":1217,"▁no":1218,"▁hv":1219,"eld":1220,"jer":1221,"▁\"":1222,"▁19":1223,"▁pro":1224,"yn":1225,"unn":1226,"yr":1227,"den":1228,"▁så":1229,"oliti":1230,"▁ny":1231,"▁mot":1232,"øn":1233,"ft":1234,"ir":1235,"ff":1236,"em":1237,"▁kon":1238,"del":1239,"øl":1240,"gen":1241,"ans":1242,"▁også":1243,"ly":1244,"▁jeg":1245,"▁W":1246,"ov":1247,"eller":1248,"inn":1249,"ber":1250,"▁3":1251,"ære":1252,"▁to":1253,"▁tr":1254,"var":1255,"um":1256,"▁*":1257,"os":1258,"ub":1259,"▁Nor":1260,"ris":1261,"er\n":1262,"▁man":1263,"en\n":1264,"od":1265,"ud":1266,"sm":1267,"ling":1268,"▁der":1269,"▁bar":1270,"▁le":1271,"ng":1272,"▁få":1273,"er,":1274,"▁Vi":1275,"▁kj":1276,"ob":1277,"▁be":1278,"▁ved":1279,"ron":1280,"amp":1281,"old":1282,"▁dag":1283,"▁sel":1284,"ks":1285,"▁sin":1286,")\n":1287,"ve":1288,"et,":1289,"til":1290,"men":1291,"ch":1292,"lere":1293,"▁Han":1294,"ale":1295,"ært":1296,"▁under":1297,"land":1298,".0":1299,"▁ha":1300,"▁20":1301,"▁tid":1302,"øk":1303,"skap":1304,"elt":1305,"rå":1306,"adde":1307,"eder":1308,"▁ar":1309,"▁blir":1310,"▁0":1311,"og":1312,"ia":1313,"▁Jeg":1314,"ass":1315,"tig":1316,"elig":1317,"▁In":1318,"▁sl":1319,"ry":1320,"res":1321,"▁hadde":1322,"ater":1323,"▁–":1324,"ab":1325,"per":1326,"▁fort":1327,"▁kv":1328,"▁politi":1329,"▁200":1330,"und":1331,"▁være":1332,"▁and":1333,"gj":1334,"isk":1335,"▁ver":1336,"▁min":1337,"▁stor":1338,"bei":1339,"ger":1340,"rem":1341,"vis":1342,"▁«":1343,"▁du":1344,"▁Men":1345,"ingen":1346,"▁eller":1347,"dig":1348,"di":1349,"rik":1350,"tte":1351,"▁nå":1352,"▁4":1353,"▁da":1354,"▁An":1355,"▁De":1356,"▁e":1357,"alt":1358,"et\n":1359,"▁reg":1360,"▁tre":1361,".2":1362,"ark":1363,"▁andre":1364,"▁hun":1365,"▁land":1366,"utt":1367,"▁mil":1368,"ers":1369,"else":1370,"øp":1371,"ali":1372,"▁pl":1373,"ost":1374,"▁Den":1375,"▁nor":1376,"▁mer":1377,"du":1378,"nes":1379,"yl":1380,"iske":1381,"▁spil":1382,"▁Fot":1383,"kl":1384,"▁enn":1385,"sent":1386,"tter":1387,"øre":1388,"ran":1389,"▁dette":1390,"▁For":1391,"akt":1392,"ert":1393,"▁by":1394,"ret":1395,"▁5":1396,"rø":1397,"▁vært":1398,"jem":1399,"alg":1400,"▁bru":1401,"ati":1402,"▁selv":1403,"opp":1404,"▁bil":1405,"ast":1406,"▁bl":1407,"?\n":1408,"rep":1409,"ede":1410,"▁kun":1411,"iv":1412,"▁En":1413,"sert":1414,"ets":1415,"▁lag":1416,"▁Sk":1417,"ire":1418,"tem":1419,"**":1420,"▁noe":1421,"▁komm":1422,"ull":1423,"beid":1424,"▁sv":1425,"sdag":1426,"itt":1427,"▁Norge":1428,"▁flere":1429,"lige":1430,"org":1431,"lik":1432,"▁gr":1433,"▁går":1434,"TB":1435,"▁ann":1436,"o:":1437,"▁an":1438,"ner":1439,"ken":1440,"▁ek":1441,"ene.\n":1442,"▁ra":1443,"ten":1444,"by":1445,"ev":1446,"ug":1447,"▁alle":1448,"▁Al":1449,"▁mange":1450,"▁får":1451,"oner":1452,"ket":1453,"▁gang":1454,"vik":1455,"▁fikk":1456,"ye":1457,"legg":1458,"set":1459,"ili":1460,"ster":1461,"ød":1462,"▁milli":1463,"ie":1464,"▁kron":1465,"ring":1466,"▁første":1467,"ål":1468,"elle":1469,"tid":1470,"▁uten":1471,"a.\n":1472,"▁denne":1473,"▁Ar":1474,"▁Foto:":1475,"ige":1476,"▁sak":1477,"ic":1478,"a,":1479,"▁kamp":1480,"▁go":1481,"sj":1482,"lag":1483,".200":1484,"føl":1485,"este":1486,"im":1487,"▁noen":1488,"op":1489,"▁bare":1490,"▁201":1491,"ligere":1492,"net":1493,"▁sy":1494,"før":1495,"arti":1496,"end":1497,"hold":1498,"▁se":1499,"▁sj":1500,"▁dem":1501,"no":1502,"iser":1503,"▁ser":1504,"▁fors":1505,"elsen":1506,"ennom":1507,"▁ned":1508,"▁mener":1509,"ekt":1510,"gang":1511,"ellom":1512,"▁eg":1513,"▁frem":1514,"▁siste":1515,"ult":1516,"▁del":1517,"la":1518,"slo":1519,"ER":1520,"sten":1521,"dre":1522,"▁Th":1523,"▁6":1524,"▁sn":1525,"▁lang":1526,"▁Sp":1527,"▁når":1528,",\n":1529,"▁prosent":1530,"▁bet":1531,"lem":1532,"jel":1533,"red":1534,"▁kommer":1535,"eb":1536,"▁18":1537,"tiv":1538,"sel":1539,"olk":1540,"▁mellom":1541,"▁bes":1542,"▁Oslo":1543,"▁sik":1544,"oh":1545,"ier":1546,"stad":1547,"sb":1548,"▁gjennom":1549,"▁beg":1550,"▁mye":1551,"000":1552,"omm":1553,"▁meg":1554,"▁nye":1555,"▁tilb":1556,"a\n":1557,"eter":1558,"sjon":1559,"kj":1560,"mp":1561,".1":1562,"▁oss":1563,"▁Ch":1564,"lad":1565,"▁høy":1566,"▁Og":1567,"▁sa":1568,"AN":1569,"rett":1570,"dater":1571,"obb":1572,"oll":1573,"ubli":1574,"▁8":1575,"▁hvor":1576,"▁7":1577,"ulle":1578,"▁gå":1579,"ball":1580,"-T":1581,"▁10":1582,"▁bå":1583,"ess":1584,"sti":1585,"are":1586,"inist":1587,"slag":1588,"▁ei":1589,"anske":1590,"▁fin":1591,"ard":1592,"▁Dette":1593,"▁kont":1594,"datert":1595,"▁run":1596,"▁Ø":1597,"sker":1598,"iktig":1599,"▁ø":1600,"pl":1601,"ong":1602,"ef":1603,"▁te":1604,"atte":1605,"▁15":1606,"ac":1607,"ake":1608,"▁hele":1609,"▁fly":1610,"▁rett":1611,"ansk":1612,".no":1613,"ener":1614,"▁sammen":1615,"let":1616,"raf":1617,"ven":1618,"e.\n":1619,"▁inter":1620,"jef":1621,"▁Ber":1622,"følge":1623,"▁ta":1624,"▁Opp":1625,"ting":1626,"▁kunne":1627,"det":1628,"ublisert":1629,"▁fram":1630,"ram":1631,"gi":1632,"▁stør":1633,"mid":1634,"ene,":1635,"▁kommun":1636,"riv":1637,"rev":1638,"▁\"\n":1639,"berg":1640,"▁bak":1641,"▁11":1642,"▁blitt":1643,"na":1644,"▁norske":1645,"alen":1646,"▁mu":1647,"▁Les":1648,"on\n":1649,"▁grunn":1650,"▁like":1651,"e\n":1652,"enger":1653,"▁tro":1654,"ningen":1655,"▁c":1656,"▁kri":1657,"▁nok":1658,"rodu":1659,"tet":1660,"!\n":1661,"▁alt":1662,"▁pers":1663,"▁hver":1664,"▁sm":1665,"▁lig":1666,"▁stat":1667,"▁Dag":1668,"▁Da":1669,"etter":1670,"▁arbeid":1671,"SA":1672,"EB":1673,"hand":1674,"▁helt":1675,"▁bed":1676,"ip":1677,"▁mø":1678,"▁nær":1679,"▁hjem":1680,"▁pres":1681,"enter":1682,"▁Tr":1683,"▁blant":1684,"nd":1685,"risti":1686,"▁Nord":1687,"hus":1688,"som":1689,"jør":1690,"satt":1691,"▁ty":1692,"e,":1693,"oms":1694,"▁Mar":1695,"-TV":1696,"EN":1697,"▁12":1698,"▁tidligere":1699,"ust":1700,"▁igj":1701,"▁rundt":1702,"▁Å":1703,"ente":1704,"▁skulle":1705,"ings":1706,"▁ingen":1707,"▁beste":1708,"▁Publisert":1709,"inner":1710,"▁godt":1711,"▁fj":1712,"▁16":1713,"t.\n":1714,"over":1715,"▁skj":1716,"▁store":1717,"▁NTB":1718,"▁siden":1719,"),":1720,"▁både":1721,"▁her":1722,"ester":1723,"▁mål":1724,"▁17":1725,"▁WEB":1726,"▁føl":1727,"rer":1728,"▁forb":1729,"ill":1730,"▁WEB-TV":1731,"med":1732,"eldig":1733,"pe":1734,"▁god":1735,"sen.\n":1736,"▁skri":1737,"▁øn":1738,"▁fått":1739,"▁Joh":1740,"lighet":1741,"blad":1742,"▁hå":1743,"erne":1744,"▁9":1745,"▁mann":1746,"hol":1747,"▁tilbake":1748,"▁slik":1749,"io":1750,"▁ans":1751,"sv":1752,"▁Her":1753,"dd":1754,"ften":1755,"▁13":1756,"sf":1757,"mann":1758,"▁Stor":1759,"-år":1760,"▁14":1761,"▁sitt":1762,"cti":1763,"▁Der":1764,"▁Se":1765,"post":1766,"▁Ro":1767,"▁vel":1768,"▁end":1769,"-t":1770,"▁el":1771,"▁litt":1772,"uro":1773,"▁hva":1774,"▁USA":1775,"▁valg":1776,"kte":1777,"▁syn":1778,"røm":1779,"▁Un":1780,"rupp":1781,"tisk":1782,"▁nett":1783,"▁hol":1784,"▁sine":1785,"isjon":1786,"▁199":1787,"▁jobb":1788,"ont":1789,"s\n":1790,"▁ville":1791,"ette":1792,"sak":1793,"au":1794,"▁dø":1795,"▁øk":1796,"▁fot":1797,"▁gikk":1798,"oved":1799,"▁På":1800,"▁hen":1801,"▁vei":1802,"ubb":1803,"ksjon":1804,"▁gam":1805,"ind":1806,"▁millioner":1807,"▁viktig":1808,"ban":1809,"▁(1":1810,"▁sen":1811,"pen":1812,"▁samme":1813,"mel":1814,"▁Nå":1815,"▁Hv":1816,"▁Oppdatert":1817,"ønn":1818,"inister":1819,"ien":1820,"ars":1821,"▁of":1822,"▁annet":1823,"▁Av":1824,"vel":1825,"▁Etter":1826,"TO":1827,"▁Hun":1828,"ion":1829,"ene\n":1830,"les":1831,"rann":1832,"isse":1833,"▁Man":1834,"▁kroner":1835,"▁sc":1836,"▁liv":1837,"fer":1838,"▁gjør":1839,"bru":1840,"kker":1841,"▁gjøre":1842,"dere":1843,"▁22":1844,"▁lø":1845,"ott":1846,"ommer":1847,"avn":1848,"▁fire":1849,"stre":1850,"▁VG":1851,"▁sek":1852,"inger":1853,"▁Int":1854,"ck":1855,"edet":1856,"▁red":1857,"▁sli":1858,"▁mens":1859,"sh":1860,"▁Y":1861,"▁ly":1862,"▁veldig":1863,"▁stil":1864,"met":1865,"▁folk":1866,"t,":1867,"roducti":1868,"▁Har":1869,"▁mest":1870,"▁verd":1871,"▁tror":1872,"▁nord":1873,"▁klar":1874,"▁hans":1875,"kel":1876,"▁Introducti":1877,"iller":1878,"▁Introduction\n":1879,"dal":1880,"▁tatt":1881,"alv":1882,"amili":1883,"-k":1884,"▁Tor":1885,"▁pre":1886,"▁per":1887,"ses":1888,"▁regjer":1889,"▁Li":1890,"ren":1891,"ai":1892,"▁vir":1893,"app":1894,"tikk":1895,"▁ham":1896,"rav":1897,"ått":1898,"▁ord":1899,"▁mennes":1900,"▁jo":1901,"▁gi":1902,"ise":1903,"0\n":1904,"▁fem":1905,"▁par":1906,"atter":1907,"merik":1908,"ah":1909,"entet":1910,"▁norsk":1911,"inne":1912,"▁kl.":1913,"ordan":1914,"▁fer":1915,"sen,":1916,"▁bek":1917,"kter":1918,"ay":1919,".000":1920,"▁løp":1921,"utter":1922,"eim":1923,"stand":1924,"atur":1925,"esi":1926,"▁står":1927,"▁aller":1928,"si":1929,"▁kveld":1930,"▁styr":1931,"▁skriver":1932,"gge":1933,"NTB":1934,"ges":1935,"onom":1936,"-1":1937,"stil":1938,"ninger":1939,"jø":1940,"▁viser":1941,"tak":1942,"s.\n":1943,"sen\n":1944,"▁tok":1945,"▁barn":1946,"▁bra":1947,"▁hoved":1948,"ate":1949,"▁ein":1950,"t\n":1951,"▁FO":1952,"▁vår":1953,"▁Sam":1954,"▁fjor":1955,"▁Kristi":1956,"skapet":1957,"▁fri":1958,"▁sent":1959,"▁fil":1960,"▁Sol":1961,"▁Politi":1962,"▁mor":1963,"form":1964,"he":1965,":1":1966,"anse":1967,"ET":1968,"7\n":1969,"kket":1970,"▁off":1971,"01":1972,":3":1973,"▁tar":1974,"▁ad":1975,"▁len":1976,"unnet":1977,"istor":1978,").\n":1979,"▁TV":1980,"ole":1981,"▁mid":1982,"▁slutt":1983,"▁la":1984,"sik":1985,"▁Re":1986,"ident":1987,"anger":1988,"elen":1989,"alte":1990,"▁Ny":1991,"▁ster":1992,"par":1993,"▁full":1994,"elser":1995,"dighet":1996,"ktør":1997,"dri":1998,"ing.\n":1999,"smål":2000,"▁(\n":2001,"gjør":2002,"ny":2003,"▁hand":2004,"raff":2005,"▁30":2006,"▁bør":2007,"****":2008,"▁vå":2009,"orde":2010,"ine":2011,"asjonen":2012,"tiske":2013,"▁person":2014,":2":2015,"5\n":2016,"asser":2017,":4":2018,"ite":2019,"▁komme":2020,"▁spiller":2021,":5":2022,"jene":2023,"▁,":2024,"▁ifølge":2025,"▁ber":2026,"▁gjort":2027,"ST":2028,"syn":2029,"ma":2030,"▁plan":2031,"▁Ut":2032,"▁fl":2033,"kur":2034,"▁bedre":2035,"heim":2036,"eren":2037,"olog":2038,"▁leder":2039,"up":2040,"▁topp":2041,"▁fortsatt":2042,"sminister":2043,"delig":2044,"▁langt":2045,"▁Sør":2046,"▁fordi":2047,"6\n":2048,"ka":2049,"▁Med":2050,"sek":2051,"▁start":2052,"ald":2053,"▁Ol":2054,"oeng":2055,"▁all":2056,"led":2057,"redag":2058,"▁opply":2059,"yk":2060,"▁fotball":2061,"rid":2062,"▁led":2063,"rad":2064,"aler":2065,"ane":2066,"elder":2067,"▁mån":2068,"eil":2069,"▁snak":2070,"ow":2071,"▁Troms":2072,"▁åp":2073,"▁igjen":2074,"rig":2075,"vil":2076,"IL":2077,"▁saken":2078,"anser":2079,"tidig":2080,"gd":2081,"ttet":2082,"▁hjel":2083,"▁El":2084,"▁ro":2085,"▁Aften":2086,"▁måtte":2087,"▁fle":2088,"▁amerik":2089,"▁21":2090,"mt":2091,"2\n":2092,"▁ligger":2093,"▁ses":2094,"råd":2095,"osi":2096,"ørdag":2097,"▁forteller":2098,"▁stø":2099,"▁disse":2100,"organ":2101,"fter":2102,"arbeid":2103,"▁sei":2104,"pro":2105,"tu":2106,"handling":2107,"bil":2108,"ond":2109,"▁sikker":2110,"▁forsk":2111,"øndag":2112,"▁pris":2113,"sland":2114,"▁sett":2115,"▁begyn":2116,"ultur":2117,"▁Le":2118,"▁ønsker":2119,"▁ang":2120,"▁gir":2121,"▁neste":2122,"rin":2123,"8\n":2124,"itet":2125,"gn":2126,"ekk":2127,"▁politiet":2128,"▁spør":2129,"▁di":2130,"▁Mo":2131,"▁Sel":2132,"▁tillegg":2133,"uss":2134,"▁han.\n":2135,"▁/":2136,"bladet":2137,"▁bor":2138,"get":2139,"off":2140,"▁Til":2141,"øst":2142,"▁ten":2143,"▁far":2144,"▁25":2145,"▁svar":2146,"▁Fran":2147,"▁Er":2148,"▁(2":2149,"ix":2150,"▁198":2151,"olle":2152,"▁hatt":2153,"▁Ste":2154,"jell":2155,"▁Ne":2156,"▁Bar":2157,"entlig":2158,"▁FOTO":2159,"▁bo":2160,"de.\n":2161,"▁svært":2162,"4\n":2163,"son":2164,"mark":2165,"▁inne":2166,"▁ju":2167,"▁forhold":2168,"▁parti":2169,"▁dra":2170,"yd":2171,"tige":2172,"▁:\n":2173,"▁lov":2174,"åd":2175,"s,":2176,"▁dire":2177,"andag":2178,"1\n":2179,"gr":2180,"▁lå":2181,"gger":2182,"▁nest":2183,"3\n":2184,"▁utvik":2185,"▁Bjør":2186,"rat":2187,"▁on":2188,"▁nytt":2189,"▁The":2190,"▁stem":2191,"styr":2192,"▁plass":2193,"▁prob":2194,"ford":2195,"tere":2196,"▁famili":2197,"▁drep":2198,"▁først":2199,"svar":2200,"▁tap":2201,"▁ban":2202,"▁år.\n":2203,"▁utt":2204,"kes":2205,"ansen":2206,"▁økonom":2207,"vi":2208,"▁intern":2209,"▁hvordan":2210,"AR":2211,"▁største":2212,"▁klubb":2213,"rist":2214,"lev":2215,"▁verdens":2216,"unkt":2217,"▁dei":2218,"9\n":2219,"▁Kar":2220,"▁hus":2221,"tin":2222,"▁Bl":2223,"▁delt":2224,"rak":2225,"ing\n":2226,"▁fyl":2227,"▁ol":2228,"meld":2229,"▁aldri":2230,"▁mus":2231,"heten":2232,"▁To":2233,"▁Z":2234,"vn":2235,"▁lok":2236,"▁WEB-TV:":2237,"▁mennesker":2238,"▁tak":2239,"bygg":2240,"▁lu":2241,"▁syke":2242,"▁gamle":2243,"▁vet":2244,"▁Stat":2245,":0":2246,"ror":2247,"-f":2248,"▁halv":2249,"▁su":2250,"oen":2251,"▁egen":2252,"▁form":2253,"ton":2254,"stem":2255,"▁23":2256,"assen":2257,"▁spesi":2258,"ore":2259,"tale":2260,"▁vin":2261,"▁allerede":2262,"▁sør":2263,"rag":2264,"ina":2265,"▁satt":2266,"▁1.":2267,"ps":2268,"▁ak":2269,"usjon":2270,"be":2271,"▁vansk":2272,"▁des":2273,"▁mulig":2274,"els":2275,"▁Ifølge":2276,"▁deg":2277,"▁Kv":2278,"▁ting":2279,"▁Et":2280,"▁søndag":2281,"ultat":2282,"▁24":2283,"▁Tromsø":2284,"▁lørdag":2285,"anp":2286,"▁hos":2287,"▁president":2288,"▁fredag":2289,"midler":2290,"▁Høy":2291,"ille":2292,"bo":2293,"vok":2294,"▁gode":2295,"▁gjorde":2296,"ager":2297,"▁fast":2298,"▁sted":2299,"anpix":2300,"▁mindre":2301,"rige":2302,"▁kre":2303,"aug":2304,"ing,":2305,"▁mist":2306,"▁poeng":2307,"pet":2308,"▁kjøp":2309,"des":2310,"▁fø":2311,"▁kjør":2312,"▁Norges":2313,"urn":2314,"▁seks":2315,"rand":2316,"▁Så":2317,"klar":2318,"jord":2319,"stra":2320,"▁Sv":2321,"iver":2322,"-A":2323,"▁Nett":2324,"af":2325,"▁Publisert:":2326,"▁tor":2327,"▁kvinn":2328,"of":2329,"rift":2330,"yndighet":2331,"ga":2332,"▁John":2333,"▁best":2334,"IN":2335,"søk":2336,"vor":2337,"▁vis":2338,"øm":2339,"▁skjed":2340,"▁res":2341,"▁dår":2342,"agt":2343,"▁VM":2344,"▁ter":2345,"▁minutter":2346,"▁ant":2347,"arder":2348,"ember":2349,"▁større":2350,"▁Euro":2351,"▁vant":2352,"▁van":2353,"▁frå":2354,"▁heller":2355,"ativ":2356,"orten":2357,"OL":2358,"kom":2359,"iden":2360,"heng":2361,"▁lever":2362,"elef":2363,"man":2364,"▁besk":2365,"senter":2366,"▁ska":2367,"spl":2368,"..":2369,"▁ute":2370,"▁klart":2371,"lingen":2372,"gt":2373,"▁ev":2374,"gram":2375,"▁konkur":2376,"forb":2377,"▁Før":2378,"▁død":2379,"▁Ter":2380,"▁Erik":2381,"jen":2382,"OR":2383,"nings":2384,"rike":2385,"raft":2386,"▁ett":2387,"▁&":2388,"▁forsvar":2389,"▁skap":2390,"pre":2391,"tes":2392,"allet":2393,"mb":2394,"▁bok":2395,"▁histor":2396,",5":2397,"-s":2398,"▁stort":2399,"rakt":2400,"kere":2401,"▁Når":2402,"ou":2403,"kn":2404,"▁sommer":2405,"▁Tron":2406,"▁mandag":2407,"under":2408,"▁kort":2409,"▁New":2410,"▁straff":2411,"▁Ty":2412,"ennes":2413,"NTB)\n":2414,"▁kjent":2415,"▁annen":2416,"liv":2417,"semp":2418,"▁Dan":2419,"iner":2420,"leder":2421,"verk":2422,"ygg":2423,"▁Ek":2424,"▁prø":2425,"▁mer\n":2426,"▁onsdag":2427,"▁Kl":2428,"roll":2429,"ich":2430,"ham":2431,"▁kil":2432,"▁avsl":2433,"▁y":2434,"ib":2435,"iste":2436,"▁Aftenpost":2437,"▁sø":2438,"sra":2439,"▁tren":2440,"▁EU":2441,"uar":2442,"valg":2443,"▁WEB-TV:\n":2444,"ue":2445,"organis":2446,"▁alvor":2447,"▁Sver":2448,"▁mulighet":2449,"▁kn":2450,"▁Om":2451,"▁øy":2452,"▁løpet":2453,"▁mark":2454,".no\n":2455,"▁grupp":2456,"elige":2457,"▁vur":2458,"-åringen":2459,"amer":2460,"».\n":2461,"▁sesong":2462,"midlertid":2463,"▁inv":2464,"▁fjer":2465,"▁Trond":2466,"az":2467,"▁Stav":2468,"▁fortset":2469,"-0":2470,"▁spørsmål":2471,"enner":2472,"▁Sc":2473,"uter":2474,"anpix\n":2475,"sket":2476,"én":2477,"▁torsdag":2478,"skje":2479,"▁vanskelig":2480,"▁100":2481,"▁videre":2482,"kken":2483,"▁synes":2484,"ANB":2485,"plass":2486,"o\n":2487,"if":2488,"ker\n":2489,"▁Politiet":2490,"▁Bil":2491,"▁Per":2492,"▁Car":2493,"rit":2494,"beider":2495,"▁innen":2496,"▁kjem":2497,"▁imidlertid":2498,"udd":2499,"rsdag":2500,"pr":2501,"▁Sand":2502,"▁hvis":2503,"ys":2504,"▁kanskje":2505,"ande":2506,"ori":2507,"rim":2508,"▁tirsdag":2509,"lø":2510,"»,":2511,"pris":2512,"reg":2513,"▁likevel":2514,"kkje":2515,"▁lite":2516,"▁personer":2517,"ral":2518,"▁Fr":2519,"leg":2520,"▁Ham":2521,"akk":2522,"isen":2523,"▁Ander":2524,"RK":2525,"▁områ":2526,"▁Hel":2527,"▁skjer":2528,"▁Eng":2529,"▁mo":2530,"borg":2531,"▁kampen":2532,"▁fant":2533,"▁menn":2534,"▁tur":2535,"▁Ad":2536,"▁50":2537,"▁utenfor":2538,"-2":2539,"ummer":2540,"▁det.\n":2541,"▁hev":2542,"▁verden":2543,"far":2544,"▁skad":2545,"▁situ":2546,"▁Berg":2547,"esp":2548,"▁stad":2549,"▁eksemp":2550,"▁bolig":2551,"▁197":2552,"der\n":2553,"▁lenge":2554,"uni":2555,"ført":2556,"asse":2557,"▁kor":2558,"lin":2559,"▁sol":2560,"MS":2561,"like":2562,"▁uke":2563,"der.\n":2564,"▁natt":2565,"▁kar":2566,"▁Andre":2567,"th":2568,"vir":2569,"▁Sh":2570,"vokat":2571,"▁ansvar":2572,"▁produ":2573,"▁laget":2574,"▁mat":2575,"▁#":2576,"▁Hol":2577,"te\n":2578,"▁nesten":2579,"▁internasjon":2580,"▁kli":2581,"▁hav":2582,"ce":2583,"▁barne":2584,"▁ret":2585,"bar":2586,"▁måned":2587,"▁Rus":2588,"rum":2589,"innes":2590,"elefon":2591,"▁hånd":2592,"grep":2593,"▁Brann":2594,"▁tilf":2595,"▁feng":2596,"▁Vik":2597,"▁(ANB":2598,"▁gått":2599,"▁Fin":2600,"▁samt":2601,"aksjon":2602,"▁OL":2603,"enske":2604,"▁feil":2605,"▁forn":2606,"▁oper":2607,"▁DN":2608,"▁Inn":2609,"▁rekke":2610,"rafikk":2611,"▁bid":2612,"ian":2613,"▁Sch":2614,"ksom":2615,"▁foran":2616,"▁amerikanske":2617,"▁Du":2618,"▁kultur":2619,"▁ikkje":2620,"tern":2621,"ning.\n":2622,"vær":2623,"▁gre":2624,"ild":2625,"▁Ver":2626,"▁00":2627,"▁klok":2628,"EL":2629,"▁Kj":2630,"▁selskap":2631,"▁scor":2632,"▁finne":2633,"ere.\n":2634,"te.\n":2635,"smann":2636,"RI":2637,".2008":2638,"▁bort":2639,"oc":2640,"▁funnet":2641,"▁hjemme":2642,"▁vok":2643,"▁Selv":2644,"ående":2645,"o,":2646,"sson":2647,"de,":2648,"kelig":2649,"▁spille":2650,"eland":2651,"▁Jan":2652,"▁vann":2653,"middag":2654,"a-":2655,"▁bruke":2656,"tali":2657,"ung":2658,"aller":2659,"▁nyhet":2660,"▁derfor":2661,"de\n":2662,"menn":2663,"▁eng":2664,"s-":2665,"ju":2666,"▁Flere":2667,"olen":2668,"ivå":2669,"▁kroner.\n":2670,"▁(©":2671,"sg":2672,"▁seier":2673,"yre":2674,"sted":2675,"▁Frank":2676,"▁meld":2677,"partem":2678,"ter.\n":2679,"▁regjering":2680,"ym":2681,"grunn":2682,"▁én":2683,"▁angrep":2684,"▁jan":2685,"▁film":2686,"▁mai":2687,"▁sær":2688,"▁støtte":2689,"▁og\n":2690,"ne.\n":2691,"rykk":2692,"sport":2693,"ips":2694,"istrik":2695,"▁NRK":2696,"▁Reg":2697,"o.\n":2698,"▁Europ":2699,"▁minst":2700,"▁deb":2701,"▁Or":2702,"▁Hen":2703,"ropp":2704,"sam":2705,".08":2706,"spiller":2707,"▁brann":2708,"▁vold":2709,"▁28":2710,"▁w":2711,"ank":2712,"lert":2713,".11":2714,"▁gener":2715,"ES":2716,"revet":2717,".201":2718,"▁milliarder":2719,"▁meter":2720,"eløp":2721,"▁små":2722,"sjekt":2723,"stein":2724,"▁nasjon":2725,"▁Fred":2726,"en.":2727,"▁br":2728,"▁gjelder":2729,"ssjef":2730,"▁At":2731,"▁fry":2732,"▁forklar":2733,"▁FOTO:":2734,"enes":2735,"iss":2736,"▁26":2737,"ødt":2738,"ivers":2739,"▁januar":2740,"▁ste":2741,"ons":2742,"▁09":2743,"forsk":2744,"▁tru":2745,"▁sku":2746,"▁mar":2747,"▁juni":2748,"▁Be":2749,"spil":2750,"▁Jo":2751,"▁tiden":2752,"▁kost":2753,"▁Ikke":2754,"▁i\n":2755,"▁Vil":2756,"sn":2757,"▁gjen":2758,"▁oppt":2759,"ath":2760,"i\n":2761,"▁Dagbladet":2762,"▁27":2763,"▁mang":2764,"▁hvert":2765,"▁fall":2766,"▁eit":2767,"▁gl":2768,"▁Vest":2769,"funn":2770,"▁år,":2771,"lov":2772,"▁fleste":2773,"eldre":2774,"▁Hans":2775,"▁eneste":2776,"▁senere":2777,"▁tred":2778,"ves":2779,".07":2780,"▁Som":2781,"▁deres":2782,"▁natur":2783,"▁ofte":2784,"ange":2785,"parti":2786,"▁Alt":2787,"▁landslag":2788,"kamp":2789,"entar":2790,"▁legger":2791,"▁fol":2792,"▁skole":2793,"▁enk":2794,"▁Sy":2795,"▁Par":2796,"▁sykehus":2797,"»\n":2798,"▁.\n":2799,"▁opplyser":2800,"▁196":2801,"-b":2802,"▁bruk":2803,"srael":2804,"ører":2805,"▁Jon":2806,"▁møte":2807,"ilit":2808,"▁gitt":2809,"▁oppdatert":2810,"▁bekre":2811,"▁sette":2812,"▁venn":2813,"rek":2814,"▁Tid":2815,"▁følge":2816,"▁ganger":2817,"▁til\n":2818,"▁2.":2819,"vei":2820,"yp":2821,"▁Sverige":2822,"delse":2823,"lagt":2824,"▁perio":2825,"▁medlem":2826,"▁Ingen":2827,"dige":2828,"formasjon":2829,"▁40":2830,"▁met":2831,"ftet":2832,"sø":2833,"-m":2834,"AS":2835,"▁Pro":2836,"▁skyl":2837,"ile":2838,"▁(19":2839,"▁Fotball":2840,"▁nød":2841,"ats":2842,"▁vurder":2843,"▁Kn":2844,"▁hjelp":2845,"▁Start":2846,"▁Br":2847,"▁myndighet":2848,"▁Hå":2849,"▁det,":2850,"likt":2851,"▁Storting":2852,"▁Alle":2853,"fatter":2854,"▁dagens":2855,"▁dersom":2856,"▁ga":2857,".10":2858,"▁ram":2859,"▁kontakt":2860,"▁problem":2861,"▁eksempel":2862,"▁bygg":2863,"bet":2864,"▁våre":2865,"▁Også":2866,"i,":2867,"▁sid":2868,"):\n":2869,"▁dårlig":2870,"AL":2871,"ensjon":2872,"▁alltid":2873,"ptem":2874,"aland":2875,".02":2876,"forbund":2877,"te,":2878,"ekst":2879,"▁drept":2880,"ugust":2881,"▁lett":2882,"drett":2883,"min":2884,"ide":2885,"▁finnes":2886,"▁08":2887,"▁landet":2888,"▁Ul":2889,"▁olje":2890,"▁Hva":2891,"asjer":2892,"dire":2893,"▁rom":2894,"hov":2895,"▁·":2896,"▁leng":2897,"dom":2898,"ere\n":2899,".01":2900,"itter":2901,"▁hvil":2902,"▁mars":2903,"ork":2904,"går":2905,"▁Hvis":2906,"aks":2907,"▁Ann":2908,"øyd":2909,"▁Petter":2910,"▁bruker":2911,"▁sikkerhet":2912,"▁din":2913,"▁rapp":2914,"orge":2915,"akter":2916,"▁Denne":2917,"▁euro":2918,"vert":2919,"råk":2920,"▁Russland":2921,"orter":2922,"▁slag":2923,"▁løs":2924,"▁Kristians":2925,"▁ry":2926,"stå":2927,"▁kommet":2928,"▁lagt":2929,"allen":2930,"▁resultat":2931,"▁Fl":2932,"▁betyr":2933,"ærer":2934,"po":2935,"ppe":2936,"rene":2937,"▁gra":2938,"ommun":2939,"vin":2940,"skland":2941,"▁miljø":2942,"▁ungd":2943,"oss":2944,"▁krav":2945,"ar\n":2946,"stri":2947,"▁Mer":2948,"visjon":2949,"▁tem":2950,"ar.\n":2951,"▁priv":2952,"yrå":2953,"▁Tips":2954,"▁veg":2955,"▁råd":2956,"kon":2957,"▁Bjørn":2958,"▁septem":2959,"▁Eg":2960,"a.":2961,"▁the":2962,"øres":2963,"aktør":2964,"▁29":2965,".3":2966,"▁dager":2967,"▁dom":2968,"▁lei":2969,"fil":2970,"▁samtidig":2971,"▁begge":2972,"kast":2973,"uder":2974,"):":2975,"▁håper":2976,"ublik":2977,"▁tu":2978,"▁holde":2979,"▁juli":2980,"▁kvali":2981,"▁samarbeid":2982,"▁Vå":2983,"ack":2984,"▁Mag":2985,"spunkt":2986,"▁Bra":2987,"ETT":2988,"▁Norsk":2989,"▁disk":2990,"asjoner":2991,"vid":2992,"enstre":2993,".09":2994,"▁Bo":2995,"tim":2996,"▁bud":2997,"ON":2998,"rom":2999,"lemer":3000,"▁peng":3001,"uten":3002,"stit":3003,"▁tv":3004,"▁Ale":3005,"▁07":3006,"▁bur":3007,"lys":3008,"ikt":3009,"rang":3010,"ister":3011,"ja":3012,"▁(V":3013,"▁bef":3014,"▁nov":3015,"▁trenger":3016,"▁*****":3017,"▁dermed":3018,"▁innlegg":3019,"dene":3020,"▁midt":3021,"▁000":3022,"▁Kon":3023,"▁okt":3024,"sep":3025,"tive":3026,"▁stud":3027,"ask":3028,"▁tredje":3029,"▁Mange":3030,"ebru":3031,"▁ansatte":3032,"▁navn":3033,"▁mannen":3034,"der,":3035,"bruk":3036,"i.\n":3037,"nt":3038,"osisjon":3039,".06":3040,"tekt":3041,"▁Gr":3042,"▁Fra":3043,"ograf":3044,"▁august":3045,"fører":3046,"▁bry":3047,"fjord":3048,"▁interes":3049,"▁stedet":3050,"kku":3051,"▁Under":3052,"▁brukt":3053,"▁million":3054,"▁unge":3055,"\".\n":3056,"▁Marti":3057,"▁forrige":3058,"5,":3059,"stat":3060,"▁spesielt":3061,"-p":3062,".03":3063,"▁repre":3064,"▁fengsel":3065,"▁Stavanger":3066,"▁holdt":3067,"ator":3068,"vere":3069,"▁gammel":3070,"▁musikk":3071,"fin":3072,"ne,":3073,"gav":3074,"han":3075,"obber":3076,"▁Mid":3077,"▁tjene":3078,"▁Trondheim":3079,"hag":3080,"50":3081,"▁Ref":3082,"raftig":3083,"▁Tyskland":3084,"ress":3085,"estiv":3086,"▁Lars":3087,"▁uk":3088,"erte":3089,"ølv":3090,"bu":3091,"▁Kristiansand":3092,"ern":3093,"sterne":3094,"ach":3095,"ingen.\n":3096,"▁Pl":3097,"▁marked":3098,"▁ulike":3099,"\"\n":3100,"ilde":3101,"eir":3102,"iet":3103,"▁im":3104,"minist":3105,"▁bom":3106,"▁sto":3107,"▁bu":3108,"▁kontroll":3109,"▁Land":3110,"▁kap":3111,"▁syk":3112,"▁terror":3113,"▁gjerne":3114,"▁febru":3115,"▁penger":3116,"▁avis":3117,"gende":3118,"▁morgen":3119,"stru":3120,"▁La":3121,"▁aks":3122,"elles":3123,"▁vart":3124,"tighet":3125,"▁stopp":3126,"vå":3127,"bum":3128,"▁sky":3129,"▁helse":3130,"ning,":3131,"ktor":3132,"pril":3133,"▁Q":3134,"▁Fredrik":3135,"nad":3136,"▁krig":3137,"▁seg.\n":3138,"jern":3139,"▁startet":3140,"▁som\n":3141,"entene":3142,"syk":3143,"▁Ap":3144,"okk":3145,"▁lav":3146,"ere,":3147,"▁fun":3148,"▁mis":3149,"▁rask":3150,"▁Rosen":3151,"▁Derfor":3152,"▁oppr":3153,"▁dri":3154,"one":3155,"▁2000":3156,"▁(f":3157,"▁pop":3158,"istan":3159,"▁forslag":3160,"▁mel":3161,"▁ekstra":3162,"▁milit":3163,"ania":3164,"▁informasjon":3165,"▁kjø":3166,"ited":3167,"▁star":3168,"▁forv":3169,"▁uker":3170,"spill":3171,"▁på\n":3172,":00":3173,"▁Mad":3174,"▁Lar":3175,"sjett":3176,"hør":3177,"ar,":3178,"sleder":3179,"▁timer":3180,"stilling":3181,"▁Sj":3182,"▁april":3183,"aget":3184,"▁posi":3185,"ober":3186,"▁Hø":3187,"▁Run":3188,"▁organis":3189,"▁Aftenposten":3190,"▁Christi":3191,"▁direktør":3192,"else.\n":3193,"str":3194,"▁tekn":3195,"▁kir":3196,"▁Lu":3197,"▁kunst":3198,"▁tilt":3199,"▁hennes":3200,"sc":3201,"gder":3202,"▁utford":3203,"▁dag.\n":3204,"ation":3205,"ta":3206,"▁Nil":3207,"yrk":3208,"▁uly":3209,"ash":3210,"▁amb":3211,"▁aktiv":3212,"▁press":3213,"føre":3214,"ensk":3215,"▁deler":3216,".04":3217,"▁Slik":3218,"▁tidlig":3219,"holder":3220,"▁pass":3221,"-OL":3222,"▁Finn":3223,",2":3224,"urnali":3225,"komm":3226,"▁vise":3227,"ighet":3228,"▁(©NTB)\n":3229,"sjef":3230,"▁bri":3231,"ital":3232,"▁trener":3233,"sav":3234,"▁liten":3235,"ekter":3236,"▁vider":3237,"▁regjeringen":3238,"▁enda":3239,"står":3240,"▁Eksterne":3241,"▁Bak":3242,"▁trolig":3243,"▁overra":3244,"▁Øy":3245,"▁direkte":3246,"bud":3247,"ingene":3248,"ade":3249,"fl":3250,"▁Martin":3251,"▁lenker\n":3252,"▁United":3253,"▁altså":3254,"▁omgang":3255,"▁avgjør":3256,"▁Mann":3257,"ode":3258,"▁By":3259,"▁Rom":3260,"▁årets":3261,"▁sist":3262,"pper":3263,"ongen":3264,"▁september":3265,"▁gull":3266,"▁forbin":3267,"▁Am":3268,"▁åtte":3269,"▁redus":3270,"▁jord":3271,"kkurat":3272,"hav":3273,"kjør":3274,"anter":3275,"ende.\n":3276,"▁Ole":3277,"▁viste":3278,"andre":3279,"erer":3280,"▁try":3281,"▁for\n":3282,"▁tross":3283,"▁Ved":3284,"ergi":3285,"rasjon":3286,"▁forsøk":3287,"▁spilte":3288,"departem":3289,"▁(VG":3290,"▁mott":3291,"▁slo":3292,"ningene":3293,"▁FN":3294,"tr":3295,"▁side":3296,"ete":3297,"▁samfunn":3298,"▁sosi":3299,"▁salg":3300,"▁det\n":3301,".2009":3302,"▁Min":3303,"▁melder":3304,"▁Bergen":3305,"▁Norge.\n":3306,"▁tra":3307,"obil":3308,"▁lønn":3309,"▁tal":3310,"▁kommune":3311,"▁kvinner":3312,"▁[":3313,"▁overfor":3314,"▁stå":3315,"sler":3316,"▁enkel":3317,"▁fag":3318,"▁dyr":3319,"d.\n":3320,"▁rek":3321,"fatt":3322,"▁jobber":3323,"▁seri":3324,"▁Norske":3325,"es.\n":3326,"vern":3327,"▁bas":3328,"sta":3329,"▁legge":3330,"▁Rog":3331,"direktør":3332,"▁SV":3333,"eit":3334,"▁Dermed":3335,"▁Mol":3336,"avnet":3337,"▁Lond":3338,"▁døde":3339,"ksomhet":3340,"▁Ju":3341,"▁Refer":3342,"▁tot":3343,"esk":3344,"▁Peder":3345,"▁Odd":3346,"▁Over":3347,"▁forl":3348,"anser\n":3349,".05":3350,"mo":3351,"▁arbeids":3352,"▁kvart":3353,"isik":3354,"▁Dav":3355,"▁Tru":3356,"▁vanlig":3357,"▁byen":3358,"saken":3359,"▁Af":3360,"▁Øst":3361,"▁doll":3362,"▁sagt":3363,"▁31":3364,"▁Me":3365,"▁dok":3366,"▁års":3367,"-post":3368,"omas":3369,"▁på.\n":3370,"distrik":3371,"på":3372,"▁Ma":3373,"▁vit":3374,"▁Samtidig":3375,"atisk":3376,"bert":3377,"▁søk":3378,"▁Rosenborg":3379,"eth":3380,"ringer":3381,"uelt":3382,"▁drap":3383,"▁ganske":3384,"▁bevis":3385,"▁Bå":3386,"▁enkelt":3387,"skj":3388,"▁innhold":3389,"lå":3390,"▁ben":3391,"▁tvil":3392,"▁Sport":3393,"▁Frp":3394,"▁skje":3395,"▁utd":3396,"ity":3397,"▁Hag":3398,"▁luft":3399,"▁oktober":3400,"▁nødven":3401,"veg":3402,"urt":3403,"▁egne":3404,"▁Kan":3405,"▁(3":3406,"va":3407,"▁statsminister":3408,"▁Sm":3409,"uts":3410,"▁ettermiddag":3411,"lo":3412,"kkel":3413,"▁sendt":3414,"▁hund":3415,"▁selskapet":3416,"dustri":3417,"▁hun.\n":3418,"▁klare":3419,"▁Te":3420,"▁holder":3421,"99":3422,"▁virkelig":3423,"6,":3424,"▁svenske":3425,"▁Bre":3426,"▁fran":3427,"▁skjedde":3428,"▁opplev":3429,"ning\n":3430,"▁henne":3431,".12":3432,"▁høst":3433,"▁imp":3434,"▁fak":3435,"▁|":3436,"▁Frankrike":3437,"▁er\n":3438,"ensen":3439,"grupp":3440,"▁nem":3441,"▁eksp":3442,"▁Referanser\n":3443,"▁dat":3444,"reng":3445,"arten":3446,"▁hør":3447,"▁Høyre":3448,"ias":3449,"-N":3450,"▁program":3451,"▁internasjonale":3452,"▁finans":3453,"▁tall":3454,"▁Ser":3455,"▁sju":3456,"stene":3457,"asi":3458,"lit":3459,"▁slike":3460,"giver":3461,"▁fortsetter":3462,"▁«\n":3463,"skri":3464,"andid":3465,"aly":3466,"▁fornøyd":3467,"▁vær":3468,"▁Ge":3469,"øt":3470,"▁til.\n":3471,".4":3472,"▁Arne":3473,"▁sport":3474,"9,":3475,"SEN":3476,"▁Vær":3477,"▁riktig":3478,"▁event":3479,"▁sitter":3480,"▁vest":3481,"▁sentrum":3482,"▁hy":3483,"▁spill":3484,"alle":3485,"▁grad":3486,"▁TIL":3487,"▁særlig":3488,"▁hvem":3489,"mere":3490,"▁desember":3491,"▁utvikling":3492,"▁Tre":3493,"sst":3494,"▁ab":3495,"▁NTB.\n":3496,"▁Su":3497,"▁unn":3498,"▁presse":3499,"▁Red":3500,"▁november":3501,"▁med\n":3502,"▁nummer":3503,"▁kraftig":3504,"▁problemer":3505,"▁Ing":3506,"▁stadig":3507,"▁spillere":3508,"▁Ab":3509,"▁klokken":3510,"▁politiske":3511,"ep":3512,"▁alvorlig":3513,"olf":3514,"ia\n":3515,"7,":3516,"▁understre":3517,"▁Siste":3518,"▁følger":3519,"▁Hvor":3520,"▁194":3521,"▁økt":3522,"▁Gunn":3523,"øker":3524,"▁sold":3525,"▁Mil":3526,"▁kvinne":3527,"uelle":3528,"▁Pa":3529,"▁NA":3530,"▁av\n":3531,"▁makt":3532,"vet":3533,"▁slå":3534,"▁Eli":3535,"fly":3536,"otell":3537,"sens":3538,"tis":3539,"jørn":3540,"▁bygge":3541,"▁Mon":3542,"sikt":3543,"kluder":3544,"use":3545,"▁burde":3546,"1,":3547,"▁gje":3548,"▁Ha":3549,"▁Thor":3550,"▁risik":3551,"▁dr":3552,"-3":3553,"▁livet":3554,"▁London":3555,"▁russ":3556,"mar":3557,"▁bety":3558,"-K":3559,"▁fores":3560,"▁bestem":3561,"kant":3562,"AND":3563,"bart":3564,"▁samm":3565,"uttet":3566,"okra":3567,"▁Itali":3568,"▁sann":3569,"en,\n":3570,"4,":3571,"▁prosent.\n":3572,"yng":3573,"▁Rø":3574,"▁Kr":3575,"▁falt":3576,"laget":3577,"anke":3578,"etil":3579,"▁England":3580,"▁60":3581,"▁eff":3582,"▁Oppdatert:":3583,"▁Del":3584,"spro":3585,"▁forbindelse":3586,"aten":3587,"▁Stein":3588,"▁FOTO:\n":3589,"▁EM":3590,"dde":3591,"▁eget":3592,"atet":3593,"▁km":3594,"ansett":3595,"▁etab":3596,"▁lenger":3597,"▁Wil":3598,"▁debatt":3599,"ende\n":3600,"jent":3601,"▁AP":3602,"▁tips":3603,"▁kl:":3604,"ykke":3605,"ush":3606,"serv":3607,"▁skol":3608,"\",":3609,"▁stand":3610,"▁sterkt":3611,"sere":3612,"ublikum":3613,"▁195":3614,"▁1,":3615,"eløpig":3616,"iversitet":3617,"aken":3618,"▁Sommer":3619,"▁ytter":3620,"▁finner":3621,"▁handler":3622,"▁offentlig":3623,"▁Dagblad":3624,"▁Bør":3625,"▁Irak":3626,"ia.\n":3627,"ter,":3628,"0,":3629,"▁Like":3630,"RE":3631,"ia,":3632,"fall":3633,"radisjon":3634,"vn.no":3635,"urg":3636,"satte":3637,"▁sikre":3638,"dr":3639,"ne\n":3640,"▁Kong":3641,"ors":3642,"▁Morten":3643,"▁verdi":3644,"▁sentral":3645,"▁betale":3646,"▁ob":3647,"▁Mich":3648,"landet":3649,"▁politidistrik":3650,"hå":3651,"▁akkurat":3652,"kjed":3653,"▁politisk":3654,".5":3655,"▁pågrep":3656,"▁scanpix\n":3657,"ines":3658,"orn":3659,"lipp":3660,"bef":3661,"ll":3662,"teg":3663,"▁årene":3664,"▁fred":3665,"▁egentlig":3666,"▁undersøk":3667,"elg":3668,"▁februar":3669,"mene":3670,"▁vinne":3671,"▁begynte":3672,"▁lokal":3673,"▁fordel":3674,"▁mester":3675,"▁Johan":3676,"st.\n":3677,"▁fjell":3678,"▁besøk":3679,"▁måte":3680,"lever":3681,"seri":3682,"▁hø":3683,"qu":3684,"▁idrett":3685,"▁åpen":3686,"▁Manch":3687,"5.\n":3688,"tal":3689,"øs":3690,"▁krever":3691,"tivt":3692,"mes":3693,"BK":3694,"▁AN":3695,"▁bekym":3696,"▁fat":3697,"tre":3698,"-åring":3699,"▁komp":3700,"gangen":3701,"2,":3702,"▁året":3703,"▁Ob":3704,"fte":3705,"▁Lille":3706,"▁NETT":3707,"▁møter":3708,"▁Danmark":3709,"▁viktigste":3710,"▁gutt":3711,"▁konkurran":3712,"▁kilom":3713,"▁føler":3714,"dus":3715,"8,":3716,"▁behandling":3717,"tert":3718,"▁situasjon":3719,"▁År":3720,"▁+":3721,"▁måneder":3722,"▁Thomas":3723,"▁stats":3724,"▁stre":3725,"delag":3726,"kene":3727,"▁vik":3728,"▁|\n":3729,"bok":3730,"▁nemlig":3731,"al.\n":3732,"AT":3733,"▁rik":3734,"▁trafikk":3735,"ael":3736,"▁Haug":3737,"▁konf":3738,"▁jul":3739,"▁Knut":3740,"▁satte":3741,"eker":3742,"ain":3743,"sikker":3744,"▁dere":3745,"▁Mål":3746,"▁fris":3747,"▁Fil":3748,"▁helg":3749,"drag":3750,"al\n":3751,"▁skrev":3752,"okus":3753,"ebo":3754,"SK":3755,"▁Alex":3756,"3,":3757,"▁nivå":3758,"ood":3759,"ment":3760,"lene":3761,"▁Co":3762,"▁dagen":3763,"vju":3764,"▁hverandre":3765,"▁Viking":3766,"▁He":3767,"▁ni":3768,"▁igjen.\n":3769,"▁nordmenn":3770,"▁sat":3771,"▁klarte":3772,"▁prosjekt":3773,"sfor":3774,"▁folke":3775,"▁tiltak":3776,"▁tø":3777,"▁kny":3778,"▁hopp":3779,"ffe":3780,"d,":3781,"▁bord":3782,"▁sjef":3783,"▁faktisk":3784,"▁endte":3785,"ingsliv":3786,"▁akt":3787,"▁500":3788,"▁kunn":3789,"rip":3790,"▁engel":3791,"▁spilt":3792,"▁fylke":3793,"rans":3794,"tiden":3795,"▁Noen":3796,"▁ikke\n":3797,"følg":3798,"▁\".\n":3799,"▁vinter":3800,"ende,":3801,"▁Nyhet":3802,"vesen":3803,"onn":3804,"sol":3805,"fra":3806,"DER":3807,"es\n":3808,"▁behov":3809,"▁Sig":3810,"slet":3811,"▁bidra":3812,"▁ferdig":3813,"da":3814,"▁regist":3815,"oil":3816,"onser":3817,"▁Leag":3818,"mannen":3819,"▁kl.\n":3820,"▁tilbud":3821,"▁ennå":3822,"srett":3823,"PI":3824,"uler":3825,"▁klubben":3826,"▁arbeidet":3827,"▁Inge":3828,"ben":3829,"isi":3830,"▁me":3831,"kerne":3832,"▁kamper":3833,"▁Norge,":3834,"▁Bu":3835,"▁Israel":3836,"▁øv":3837,"▁psyk":3838,"S\n":3839,"talen":3840,"▁vide":3841,"▁slått":3842,"▁TV-":3843,"▁lær":3844,"▁ski":3845,"2.\n":3846,"▁Bru":3847,"▁kveld.\n":3848,"4.\n":3849,"▁nei":3850,".2007":3851,"▁reis":3852,"strøm":3853,"▁bilen":3854,"-M":3855,"▁journali":3856,"y,":3857,"▁divisjon":3858,"året":3859,"SB":3860,"▁retten":3861,"▁Solberg":3862,"▁Nei":3863,"▁Ang":3864,"▁fyr":3865,"tik":3866,"▁såk":3867,"▁felles":3868,"▁fart":3869,"ska":3870,".2010":3871,"▁Vin":3872,"atene":3873,"▁(ANB-":3874,"▁stra":3875,"▁sterke":3876,"▁lik":3877,"▁operasjon":3878,"essuten":3879,"▁mistet":3880,"▁Carl":3881,"▁popul":3882,"alesti":3883,"▁prof":3884,"▁Tom":3885,"ike":3886,"▁områd":3887,"▁mobil":3888,"aren":3889,"▁Stol":3890,"skamp":3891,"kjent":3892,"unt":3893,"spoliti":3894,"▁RBK":3895,"onse":3896,"y\n":3897,"uk":3898,"▁kur":3899,"ht":3900,"yst":3901,"nn":3902,"lle":3903,"ock":3904,"sett":3905,"utte":3906,"ph":3907,"▁Gj":3908,"gjort":3909,"▁møtte":3910,"▁Dagens":3911,"▁erfar":3912,"▁sønn":3913,"▁Scanpix\n":3914,"TE":3915,"▁Mus":3916,"▁Aust":3917,"▁hjer":3918,"fri":3919,"KK":3920,"▁ru":3921,"▁01":3922,"▁nødvendig":3923,"▁Både":3924,"▁York":3925,"al,":3926,"▁Nær":3927,"▁~":3928,"skudd":3929,"▁føre":3930,"renn":3931,"▁Statoil":3932,"▁dram":3933,"rolig":3934,"holde":3935,"TI":3936,".00":3937,"▁dømt":3938,"▁slutten":3939,"iel":3940,"pool":3941,"▁ballen":3942,"▁Trump":3943,"erg":3944,"▁Kir":3945,"▁mening":3946,"▁Di":3947,"▁ventet":3948,"rest":3949,"▁forsv":3950,"lekt":3951,"▁sende":3952,"orer":3953,"gift":3954,"▁tydelig":3955,"▁motstand":3956,"▁kritikk":3957,"▁nab":3958,"DE":3959,"▁kjenner":3960,"▁Regjer":3961,"▁06":3962,"r.":3963,"age":3964,"▁(S":3965,"▁stilling":3966,"land.\n":3967,"her":3968,"▁send":3969,"anen":3970,"-S":3971,"ffet":3972,"▁rus":3973,"vest":3974,"▁193":3975,"▁kraft":3976,"▁Res":3977,"▁dag,":3978,"dem":3979,"▁region":3980,"▁skatt":3981,"▁Anders":3982,"▁dokum":3983,"19":3984,"▁Mark":3985,"-H":3986,"▁2006":3987,"▁3.":3988,"▁bildene":3989,"▁hevder":3990,"-tall":3991,"ogn":3992,"AG":3993,"▁har\n":3994,"sku":3995,"es,":3996,"▁Mot":3997,"uell":3998,"▁Våler":3999,"▁kal":4000,"▁—":4001,"fiser":4002,"▁)\n":4003,"▁Olav":4004,"▁Terje":4005,"spillere":4006,"▁Storb":4007,"kning":4008,"ander":4009,"▁ka":4010,"isin":4011,"▁kommen":4012,"▁scoret":4013,"▁språk":4014,"▁ko":4015,"▁Christian":4016,"▁heter":4017,"▁300":4018,"angrep":4019,"co":4020,"klubb":4021,"▁Hell":4022,"tein":4023,"unde":4024,"▁rette":4025,"ogg":4026,"▁kropp":4027,"▁hardt":4028,"idrett":4029,"▁stille":4030,"▁05":4031,"▁ri":4032,"▁byg":4033,"▁kontrakt":4034,"ritann":4035,"▁Sn":4036,"▁X":4037,"▁sterk":4038,"FP":4039,"▁advokat":4040,"▁Var":4041,"▁velger":4042,"▁imot":4043,"▁snø":4044,"▁ønsket":4045,"eper":4046,"▁kolle":4047,"▁Ph":4048,"rådet":4049,"▁utenrik":4050,"▁(4":4051,"▁Post":4052,"▁vårt":4053,"▁glad":4054,"▁sign":4055,"▁moder":4056,"ative":4057,"▁Sist":4058,"holm":4059,"▁Esp":4060,"mest":4061,"▁inns":4062,"▁en\n":4063,"▁seg,":4064,"▁On":4065,"▁as":4066,"▁publikum":4067,"resident":4068,"▁Ed":4069,"▁Søk":4070,"▁Vålereng":4071,"▁nå,":4072,"▁rel":4073,"oren":4074,"▁70":4075,"▁på,":4076,"sut":4077,"▁Først":4078,"ius":4079,"▁offent":4080,"▁Sve":4081,"vist":4082,"resse":4083,"sy":4084,"IF":4085,"øver":4086,"▁produksjon":4087,"▁SC":4088,"▁ful":4089,"foren":4090,"▁int":4091,"▁situasjonen":4092,"▁høyere":4093,"▁strøm":4094,"▁hens":4095,"▁aksjon":4096,"engt":4097,"▁området":4098,"▁veien":4099,"▁Manchester":4100,"▁hundre":4101,"▁Liver":4102,"▁Fri":4103,"20":4104,"ana":4105,"▁telefon":4106,"▁Sl":4107,"▁David":4108,"▁Hus":4109,"▁Jac":4110,"▁etterforsk":4111,"3.\n":4112,"▁enkelte":4113,"løp":4114,"▁innrøm":4115,"▁tradisjon":4116,"delige":4117,"▁Ho":4118,"com":4119,"kont":4120,"▁fjor.\n":4121,"▁vinner":4122,"▁(A":4123,"st\n":4124,"▁ring":4125,"elses":4126,"vit":4127,"▁Lang":4128,"øte":4129,"ha":4130,"else,":4131,"-g":4132,"▁Ein":4133,"aker":4134,"▁kjøre":4135,"-E":4136,"▁lange":4137,"brudd":4138,"▁kast":4139,"eleg":4140,"▁regn":4141,"▁Storbritann":4142,"æk":4143,"▁Aker":4144,"vand":4145,"▁Tidligere":4146,"produ":4147,"▁setter":4148,"gte":4149,"▁antall":4150,"▁Midt":4151,"▁Veg":4152,"▁demon":4153,"▁Liverpool":4154,"▁Uten":4155,"aen":4156,"▁landets":4157,"sby":4158,"ghan":4159,"▁foreløpig":4160,"▁80":4161,"atisti":4162,"▁kilometer":4163,"▁lege":4164,"ppet":4165,"OM":4166,"▁SMS":4167,"▁Can":4168,"selskap":4169,"▁reise":4170,"▁stol":4171,"▁dommer":4172,"▁britiske":4173,"▁tek":4174,"▁beskjed":4175,"politi":4176,"bane":4177,"▁Gu":4178,"huset":4179,"▁europe":4180,"▁Finans":4181,"▁besky":4182,"1.\n":4183,").":4184,"gjeng":4185,"lende":4186,"▁norm":4187,"▁Karl":4188,"▁kris":4189,"ferd":4190,"van":4191,"▁Jens":4192,"espiller":4193,"ser.\n":4194,"iti":4195,"▁hold":4196,"-V":4197,"▁barna":4198,"▁snart":4199,"▁meget":4200,"advokat":4201,"havn":4202,"▁Forsvar":4203,"▁eier":4204,".2007\n":4205,"sd":4206,"7.\n":4207,"ter\n":4208,"▁fantas":4209,"ct":4210,"▁behand":4211,"▁venter":4212,"▁uav":4213,"PIX":4214,"▁Mc":4215,"jar":4216,"enge":4217,"øse":4218,"▁administ":4219,"ANPIX":4220,"▁morg":4221,"onfer":4222,"▁Kamp":4223,"▁No":4224,"▁Ri":4225,"▁forstå":4226,"ama":4227,"▁fokus":4228,"▁ene":4229,"▁2008":4230,"▁Fac":4231,"▁fest":4232,"▁vente":4233,"bå":4234,"▁borte":4235,"▁Si":4236,"lim":4237,"▁frykt":4238,"▁hvorfor":4239,"rol":4240,"ata":4241,"▁snakket":4242,"bak":4243,"▁avtale":4244,"▁utgang":4245,"retær":4246,"▁Bro":4247,"▁Sandnes":4248,"minister":4249,"▁historie":4250,"▁forskjel":4251,"▁konsek":4252,"0000":4253,"▁mente":4254,"▁uansett":4255,"▁prin":4256,"stasjon":4257,"TER":4258,"▁Kommun":4259,"▁eldre":4260,"slam":4261,"=\"":4262,"odell":4263,"▁via":4264,"▁politikk":4265,"▁Kristian":4266,"len":4267,"▁Ben":4268,"▁Pers":4269,"▁ut.\n":4270,"▁tenke":4271,"▁sannsyn":4272,"▁kroner,":4273,"tenberg":4274,"ningen.\n":4275,"▁op":4276,"EST":4277,"▁jobbet":4278,"inga":4279,"▁nettopp":4280,"▁nev":4281,"avor":4282,"▁med.\n":4283,"▁kommentar":4284,"▁artikk":4285,"▁hotell":4286,"ink":4287,"▁ke":4288,"▁resp":4289,"▁fullt":4290,"hengig":4291,"▁dollar":4292,"▁Krist":4293,"▁pasi":4294,"enten":4295,"▁leilighet":4296,"▁kry":4297,"▁ditt":4298,"an,":4299,"▁besl":4300,"▁bakgrunn":4301,"imot":4302,"▁intervju":4303,"cu":4304,"▁snakke":4305,"▁endret":4306,"▁resten":4307,"odet":4308,"orth":4309,"emb":4310,"▁at\n":4311,"middel":4312,"mil":4313,"▁Lok":4314,"▁langs":4315,"▁skip":4316,"▁fører":4317,"▁gjer":4318,"▁hjelpe":4319,"▁sty":4320,"▁tett":4321,"▁bilde":4322,"rert":4323,"▁privat":4324,"▁gren":4325,"▁Mat":4326,"fold":4327,"kkes":4328,"▁begr":4329,"▁Fol":4330,"-Norge":4331,"▁Stoltenberg":4332,"▁38":4333,"▁he":4334,"▁Gam":4335,"gar":4336,"▁KrF":4337,"▁2005":4338,"▁02":4339,"--":4340,"▁funger":4341,"øv":4342,"▁Europa":4343,"▁Henrik":4344,"▁Sa":4345,"øndelag":4346,"annet":4347,".2005":4348,"▁lokale":4349,"▁altern":4350,"▁oppdag":4351,"▁røy":4352,"t.":4353,"iz":4354,"▁Strøm":4355,"ebook":4356,"▁rolle":4357,"▁familien":4358,"▁Arbeider":4359,"▁Rune":4360,"ahl":4361,"▁tyske":4362,"▁Foto":4363,"▁Sommer-OL":4364,"▁Stortinget":4365,"▁Bare":4366,"▁spor":4367,"▁trening":4368,"▁Fro":4369,"▁Kjell":4370,"ww":4371,"▁stemmer":4372,"onald":4373,"asj":4374,"AM":4375,"▁forfatter":4376,"egge":4377,"▁forhandling":4378,"orte":4379,"▁opptatt":4380,"ederland":4381,"▁flykt":4382,"orm":4383,"lend":4384,"an\n":4385,"▁bekrefter":4386,"▁skrevet":4387,"▁foret":4388,"▁Skriv":4389,"▁ledelsen":4390,"late":4391,"ING":4392,"se.\n":4393,"▁brukes":4394,"▁venstre":4395,"▁Ti":4396,"sparti":4397,"ign":4398,"UN":4399,"kra":4400,"▁Blant":4401,"▁slett":4402,"▁hendel":4403,"▁blå":4404,"als":4405,"▁krimin":4406,"ningkast":4407,"▁Spania":4408,"▁høyt":4409,"▁Gunnar":4410,"▁våpen":4411,"alet":4412,"▁sti":4413,"uren":4414,"▁band":4415,"ønne":4416,"▁Disse":4417,"▁daglig":4418,"▁35":4419,"enne":4420,"▁unna":4421,"px":4422,"▁kjørte":4423,"ski":4424,"▁utsatt":4425,"▁rå":4426,"▁passasjer":4427,"9.\n":4428,"ke.\n":4429,"▁Tw":4430,"▁nøy":4431,"deles":4432,"▁pra":4433,"▁test":4434,"▁**":4435,"▁stab":4436,"▁32":4437,"▁Bon":4438,"▁Jør":4439,"▁fortsette":4440,"▁medi":4441,"▁2004":4442,"▁ødel":4443,"▁03":4444,"alitet":4445,"an.\n":4446,"▁palesti":4447,"▁2010":4448,"▁-\n":4449,"▁fei":4450,"holdt":4451,"▁misten":4452,"▁Lund":4453,"ensi":4454,"▁2,":4455,"▁åpnet":4456,"▁melding":4457,"PS":4458,"▁tom":4459,"▁Magn":4460,"me.\n":4461,"▁hit":4462,"▁Bla":4463,"▁Fyl":4464,"ida":4465,"ersom":4466,"ho":4467,"▁Sti":4468,"mu":4469,"▁saken.\n":4470,"▁innt":4471,"▁mitt":4472,"▁overrask":4473,"estival":4474,"▁Facebook":4475,"▁plasser":4476,"giv":4477,"hjel":4478,"rener":4479,"▁Sen":4480,"departementet":4481,"fest":4482,".9":4483,"▁vist":4484,"▁Dersom":4485,"▁AS":4486,".no.\n":4487,"▁Harald":4488,"▁kjøpe":4489,"▁Mens":4490,"▁understreker":4491,"▁unng":4492,"▁ytterligere":4493,"▁viktige":4494,"-st":4495,"ick":4496,".2006":4497,"▁siden.\n":4498,"▁Paul":4499,"gitt":4500,"▁prøv":4501,"▁pau":4502,"sene":4503,"folk":4504,"▁Mannen":4505,"▁samlet":4506,"▁part":4507,"rar":4508,"▁innbygg":4509,"▁forklarer":4510,"▁datter":4511,"akere":4512,"▁dre":4513,"▁kjente":4514,"sentant":4515,"▁stu":4516,"elsene":4517,"▁Anne":4518,"▁eks":4519,"▁Col":4520,"klart":4521,"▁nærmere":4522,"▁selv.\n":4523,"▁Ry":4524,"sagt":4525,"▁City":4526,"▁flert":4527,"asje":4528,"▁Må":4529,"▁Norw":4530,"lege":4531,"▁Paris":4532,"øren":4533,"dens":4534,"▁tab":4535,"▁oppf":4536,"anlegg":4537,"stad.\n":4538,"▁drift":4539,"▁svensk":4540,"ssel":4541,"esel":4542,"▁Svein":4543,"ateri":4544,"bel":4545,"▁Kilde":4546,"▁skil":4547,"▁budsjett":4548,"▁tilsvar":4549,"▁SK":4550,"°\n":4551,"ikasjon":4552,"▁suks":4553,"▁krev":4554,"▁*\n":4555,"▁skape":4556,"▁36":4557,"▁steder":4558,"▁jobben":4559,"▁slår":4560,"▁Bir":4561,"haug":4562,"gaard":4563,"▁utgangspunkt":4564,"▁rep":4565,"▁Ant":4566,"LE":4567,"▁russiske":4568,"melding":4569,"▁brukte":4570,"▁spis":4571,"▁Hoved":4572,"▁Oslo.\n":4573,"▁pensjon":4574,"▁Hau":4575,"▁soldater":4576,"bin":4577,"▁storting":4578,"▁utenland":4579,"▁90":4580,"▁økonomiske":4581,"likk":4582,"mester":4583,"ke\n":4584,"sbyrå":4585,"essor":4586,"▁omfatt":4587,"skil":4588,"▁Bes":4589,"▁bus":4590,"▁opprett":4591,"▁dro":4592,"▁Stab":4593,"▁fakt":4594,"ule":4595,"▁04":4596,"▁produs":4597,"▁tri":4598,"▁til,":4599,"▁Peter":4600,"▁tid.\n":4601,"▁legg":4602,"▁USAs":4603,"sekretær":4604,"hånd":4605,"▁raskt":4606,"▁tør":4607,"-spiller":4608,"else\n":4609,"▁gro":4610,"▁nå.\n":4611,"▁Intern":4612,"▁befolk":4613,"▁Bok":4614,"tilling":4615,"▁jobbe":4616,"▁Av:":4617,"▁Agder":4618,"▁forsø":4619,"st,":4620,"▁klarer":4621,"▁Mel":4622,"parten":4623,"ke,":4624,"▁hum":4625,"slaget":4626,"-leder":4627,"ler,":4628,"▁snakker":4629,"▁sikt":4630,"▁kat":4631,"▁(født":4632,"▁drøm":4633,"▁overt":4634,"snitt":4635,"▁hovedstad":4636,"▁Afghan":4637,"plassen":4638,"▁dette,":4639,"▁Lei":4640,"utning":4641,"▁partiet":4642,"ved":4643,"▁barnehag":4644,"▁starter":4645,"▁4.":4646,"▁kong":4647,"▁eiend":4648,"▁Ru":4649,"▁opplys":4650,"AD":4651,"▁Siden":4652,"▁skikk":4653,"ativt":4654,"▁Folk":4655,"▁ep":4656,"▁fortalte":4657,"▁økonomisk":4658,"▁Fly":4659,"▁pågrepet":4660,"▁forber":4661,"▁bilder":4662,"▁Ta":4663,"▁Gro":4664,"▁beny":4665,"▁felt":4666,"IS":4667,"▁demokra":4668,"bø":4669,"partiet":4670,"▁Robert":4671,"our":4672,"▁LO":4673,"▁Ja,":4674,"▁blod":4675,"deling":4676,"▁påvir":4677,"▁påp":4678,"▁sammenlig":4679,"øtet":4680,"▁rekord":4681,"▁mag":4682,"▁foreldre":4683,"▁ferd":4684,"▁Lind":4685,"▁My":4686,"mål":4687,"▁Chelse":4688,"▁Venstre":4689,"ker.\n":4690,"▁å\n":4691,"▁syv":4692,"▁tusen":4693,"▁ut,":4694,"▁Terningkast":4695,"kret":4696,"▁energi":4697,"▁bel":4698,"▁vek":4699,"▁Kun":4700,"▁Bor":4701,"▁amerikansk":4702,"elsen.\n":4703,"@f":4704,"▁Mor":4705,"▁Ly":4706,"rekk":4707,"▁uts":4708,"lf":4709,"mus":4710,"on,":4711,"angen":4712,"▁skade":4713,"ith":4714,"▁treng":4715,"ica":4716,"ikop":4717,"▁ulov":4718,"▁Halv":4719,"▁fjerde":4720,"▁elite":4721,"▁—\n":4722,"blem":4723,"▁gar":4724,"▁Leg":4725,"▁myndigheter":4726,"kar":4727,"▁":4728,"▁siktet":4729,"cel":4730,"rali":4731,"▁kunnskap":4732,"▁ekte":4733,"kjøp":4734,"▁danske":4735,"AK":4736,"olli":4737,"ultater":4738,"▁representer":4739,"▁lage":4740,"ler.\n":4741,"▁advar":4742,"▁naturlig":4743,"▁meste":4744,"▁publisert":4745,"▁Molde":4746,"▁(D":4747,"skyl":4748,"-pro":4749,"viser":4750,"terer":4751,"...\n":4752,"stitusjon":4753,"▁elekt":4754,"sled":4755,"▁*******":4756,"▁album":4757,"vold":4758,"/S":4759,"▁Qu":4760,"▁opp.\n":4761,"▁svarte":4762,"▁\",":4763,"▁oss\n":4764,"ussel":4765,"▁israel":4766,"▁omkom":4767,"▁forskjellige":4768,"▁fru":4769,"ric":4770,"▁sier\n":4771,"▁Rogaland":4772,"▁League":4773,"▁vedt":4774,"list":4775,"amb":4776,"▁jakt":4777,"▁lin":4778,"d\n":4779,"▁uttal":4780,"▁general":4781,"▁inkluder":4782,"▁valgt":4783,"▁sex":4784,"▁0,":4785,"▁192":4786,"▁spenn":4787,"▁brø":4788,"▁øke":4789,"▁pressek":4790,"▁usikker":4791,"▁fir":4792,"▁passer":4793,"▁sikkert":4794,"jerne":4795,"ettere":4796,"▁opprør":4797,"▁sesongen":4798,"▁Inter":4799,"▁dem.\n":4800,"stad\n":4801,"▁begynner":4802,"▁Kin":4803,"ze":4804,"▁høyre":4805,"▁sjø":4806,"arbei":4807,"cup":4808,"▁Pris":4809,"▁mør":4810,"▁stemme":4811,"▁effek":4812,"▁karri":4813,"asin":4814,"ira":4815,"▁Bod":4816,"ker,":4817,"▁«S":4818,"▁dy":4819,"▁sekunder":4820,"▁Kilde:":4821,"skv":4822,"▁ho":4823,"▁valgte":4824,"▁prøve":4825,"76":4826,"▁regel":4827,"'s":4828,"▁dette.\n":4829,"▁tol":4830,"▁Ung":4831,"▁Bry":4832,"▁førte":4833,"▁vite":4834,"▁Tore":4835,"essig":4836,"▁Afghanistan":4837,"▁fys":4838,"▁nasjonal":4839,"agn":4840,"▁Far":4841,"▁SCANPIX":4842,"▁SAS":4843,"▁ungdom":4844,"▁rapport":4845,"▁beveg":4846,"▁Jap":4847,"rof":4848,"eres":4849,"▁klass":4850,"arbeider":4851,"▁landet.\n":4852,"-sjef":4853,"serien":4854,"▁periode":4855,"▁att":4856,"▁Lyn":4857,"▁bre":4858,"▁ledet":4859,"fot":4860,"lig.\n":4861,"uth":4862,"sund":4863,"inde":4864,"sjø":4865,"▁øst":4866,"synet":4867,"test":4868,"batt":4869,"ommet":4870,"ser,":4871,"▁enige":4872,"▁stiller":4873,"▁gjeld":4874,"▁invester":4875,"annes":4876,"▁lille":4877,"▁Michael":4878,"▁Sar":4879,"verket":4880,"▁(NTB":4881,"▁anbef":4882,"-h":4883,"▁ba":4884,"▁or":4885,"range":4886,"▁oppmer":4887,"vakt":4888,"jul":4889,"▁asyl":4890,"▁Ola":4891,"felt":4892,"isert":4893,"▁minutt":4894,"▁aut":4895,"▁ST":4896,"▁invol":4897,"▁saker":4898,"▁Bush":4899,"▁Port":4900,"ley":4901,"indre":4902,"▁ingenting":4903,"▁hal":4904,"pass":4905,"▁e-post":4906,"setning":4907,"▁Rik":4908,"isten":4909,"sil":4910,"▁Liv":4911,"int":4912,"▁skudd":4913,"land\n":4914,"▁fra\n":4915,"åfør":4916,"▁ekst":4917,"▁jub":4918,"▁Kont":4919,"▁neg":4920,"▁tingrett":4921,"▁nark":4922,"▁franske":4923,"▁handling":4924,"▁fremst":4925,"iere":4926,"▁skatte":4927,"▁Kultur":4928,"▁sem":4929,"▁lære":4930,"▁:":4931,"stendig":4932,"ever":4933,"dar":4934,"▁grav":4935,"▁kommunen":4936,"sa":4937,"▁oppford":4938,"rør":4939,"▁post":4940,"deren":4941,"bare":4942,"▁totalt":4943,"▁sendte":4944,"ologi":4945,"▁kriti":4946,"side":4947,"skont":4948,"ktur":4949,"seth":4950,"▁hem":4951,"etten":4952,"▁tun":4953,"gjøre":4954,"gå":4955,"▁konser":4956,"enta":4957,"punkt":4958,"ium":4959,"▁med,":4960,"▁forsik":4961,"alm":4962,"▁lev":4963,"▁jev":4964,"E\n":4965,"▁vekst":4966,"nevn":4967,"▁tapte":4968,"▁hu":4969,"che":4970,"▁Andreas":4971,"▁analy":4972,"▁super":4973,"▁North":4974,"aliser":4975,"mer.\n":4976,"land,":4977,"▁Likevel":4978,"▁arbeider":4979,"et,\n":4980,"øde":4981,"▁Kina":4982,"full":4983,"kraft":4984,"isp":4985,"▁formiddag":4986,"slig":4987,"▁frykter":4988,"anning":4989,"▁spillerne":4990,"▁5.":4991,"rere":4992,"▁alene":4993,"-P":4994,"▁vekt":4995,"▁derimot":4996,"▁Gl":4997,"▁gang.\n":4998,"▁forbru":4999,"▁uh":5000,"▁ide":5001,"rikk":5002,"▁snakk":5003,"▁Kro":5004,"▁karakter":5005,"▁brev":5006,"▁innenfor":5007,"ler\n":5008,"▁Skal":5009,"▁Char":5010,"▁191":5011,"avis":5012,"jet":5013,"▁elev":5014,"▁utrolig":5015,"alen.\n":5016,"▁Gre":5017,"▁":5018,"ærre":5019,"▁ikke.\n":5020,"▁Syri":5021,"tene":5022,"offer":5023,"▁Hu":5024,"▁Tim":5025,"▁styre":5026,"▁Iran":5027,"▁tenker":5028,"lat":5029,"▁rød":5030,"]\n":5031,"/M":5032,"▁As":5033,"▁Tir":5034,"▁von":5035,"-R":5036,"▁Vid":5037,"aw":5038,"isme":5039,"▁knyttet":5040,"▁Geir":5041,".2011":5042,"omp":5043,"førte":5044,"▁betyd":5045,"▁innvand":5046,"rerende":5047,"-trener":5048,"skl":5049,"▁skjøn":5050,"ens\n":5051,"▁virker":5052,"▁arti":5053,"▁offentlige":5054,"▁betydelig":5055,"rup":5056,"▁Tyrk":5057,"alsk":5058,"▁soli":5059,"▁Tel":5060,"▁Reuter":5061,"ice":5062,"ninger.\n":5063,"remier":5064,"æring":5065,"ssur":5066,"▁konsert":5067,"r.\n":5068,"lymp":5069,"▁slags":5070,"6.\n":5071,"▁2001":5072,"▁Tour":5073,"ront":5074,"bord":5075,"avoritt":5076,"amm":5077,"somt":5078,"▁dop":5079,"▁(0":5080,"▁inntekt":5081,"▁Regjeringen":5082,"▁opprinn":5083,"valget":5084,"kamer":5085,"kv":5086,"▁itali":5087,"▁igjen,":5088,"▁So":5089,"▁deltok":5090,"ld":5091,"▁filmen":5092,"▁svarer":5093,"-tallet":5094,"▁vind":5095,"▁vak":5096,"▁Norge\n":5097,"▁skjedd":5098,"ony":5099,"▁Ind":5100,"▁leve":5101,"▁sånn":5102,"▁45":5103,"ssy":5104,"▁Ger":5105,"▁pressekonfer":5106,"▁medisin":5107,"▁ark":5108,"▁avhør":5109,"navn":5110,"▁Kristin":5111,"▁foreld":5112,"▁All":5113,"bre":5114,"▁rygg":5115,"aljer":5116,"eier":5117,"▁konflikt":5118,"▁politidistrikt":5119,"▁ekspl":5120,"▁prøver":5121,"▁butikk":5122,"andidat":5123,"▁europeiske":5124,"▁system":5125,"person":5126,"▁iden":5127,"øyt":5128,"▁fare":5129,"...":5130,"▁klima":5131,"arm":5132,"FK":5133,"▁ren":5134,"▁organisasjon":5135,"▁bestemt":5136,"▁Telen":5137,"▁ma":5138,"▁Fredag":5139,"▁slikt":5140,"▁hvilke":5141,"▁ressur":5142,"-kamp":5143,"▁«D":5144,"▁800":5145,"▁Tu":5146,"▁skrive":5147,"▁ne":5148,"ena":5149,"oret":5150,"ikker":5151,"▁utstyr":5152,"▁2007":5153,"het.\n":5154,"▁velge":5155,"▁Go":5156,"▁Ni":5157,"▁håp":5158,"spør":5159,"▁gran":5160,"-4":5161,"lam":5162,"▁lavere":5163,"▁reiser":5164,"▁avisen":5165,"▁Madrid":5166,"alit":5167,"tur":5168,"▁deretter":5169,"▁oss,":5170,"ØR":5171,"▁Magnus":5172,"▁hente":5173,"eleder":5174,"se\n":5175,"▁kart":5176,"æren":5177,"▁Mu":5178,"▁Stavang":5179,"▁Bri":5180,"g\n":5181,"dra":5182,"▁seg\n":5183,"8.\n":5184,"▁bedrift":5185,"▁kvinnen":5186,"utvik":5187,"alt.\n":5188,"se,":5189,"vard":5190,"▁selge":5191,"BC":5192,"staur":5193,"ydro":5194,"IK":5195,"▁Telefon":5196,"▁Gran":5197,"ås":5198,"▁endelig":5199,"IG":5200,"itu":5201,"▁art":5202,"nord":5203,"▁Arsen":5204,"▁liker":5205,"alje":5206,"▁San":5207,"▁Frem":5208,"▁solgt":5209,"▁Oppdatert\n":5210,"▁gjeng":5211,"svis":5212,"▁sannsynlig":5213,"▁33":5214,"▁Føl":5215,"amilien":5216,"▁dør":5217,"-se":5218,"▁West":5219,"▁Espen":5220,"melig":5221,"▁Jensen":5222,"stol":5223,"▁sammenheng":5224,"▁«T":5225,"▁dobb":5226,"hjelp":5227,"▁suksess":5228,"▁Olsen":5229,"gene":5230,">\n":5231,"▁VG.\n":5232,"ona":5233,"▁klim":5234,"start":5235,"kort":5236,"▁helst":5237,"▁kamer":5238,"lie":5239,"▁spur":5240,"▁utover":5241,"T:":5242,"▁smil":5243,"▁såkalte":5244,"▁meg,":5245,"redaktør":5246,"▁3,":5247,"▁høre":5248,"terte":5249,"er,\n":5250,"▁åpne":5251,"▁ran":5252,"▁Pedersen":5253,"le\n":5254,"▁her\n":5255,"tek":5256,"▁omt":5257,"▁vunnet":5258,"▁hensyn":5259,"▁Arbeid":5260,"løs":5261,"sper":5262,"ED":5263,"▁pri":5264,"▁flertall":5265,"▁her.\n":5266,"▁varslet":5267,"▁tegn":5268,"▁industri":5269,"▁Sven":5270,"-Kore":5271,"reis":5272,"▁Gar":5273,"▁inntil":5274,"vent":5275,"▁private":5276,"▁BIL":5277,"▁©":5278,"omin":5279,"▁rev":5280,"hel":5281,"▁fantastisk":5282,"funnet":5283,"▁søndag.\n":5284,"▁militær":5285,"re.\n":5286,"▁Fire":5287,"or\n":5288,"▁nylig":5289,"ene.":5290,"or.\n":5291,"▁arrang":5292,"till":5293,"▁trodde":5294,"▁Hei":5295,"▁bi":5296,"▁Oppdatert:\n":5297,"stø":5298,"▁Fvn.no":5299,"▁statsb":5300,"▁posisjon":5301,"▁teg":5302,"▁(N":5303,"unkter":5304,"▁ball":5305,"ante":5306,"▁tanke":5307,"LO":5308,"-B":5309,"▁Cl":5310,"▁Leder":5311,"▁anled":5312,"▁palestin":5313,"▁Stad":5314,"▁sikret":5315,"jernen":5316,"▁Sent":5317,"▁reager":5318,"▁valget":5319,"park":5320,"▁trekke":5321,"▁foreg":5322,"▁flytte":5323,"▁[\n":5324,"▁Nei,":5325,"▁overgrep":5326,"▁·\n":5327,"▁Verdens":5328,"▁tå":5329,"▁uken":5330,"koh":5331,"▁gate":5332,"sid":5333,"▁økte":5334,"▁prosent,":5335,"n\n":5336,"bjørn":5337,"bev":5338,"▁driver":5339,"-O":5340,"▁ført":5341,"▁34":5342,"udi":5343,"▁gruppe":5344,"iker":5345,"▁redaktør":5346,"▁oppgav":5347,"ie\n":5348,"ame":5349,"▁vol":5350,"▁kniv":5351,"prin":5352,"▁Pol":5353,"▁lys":5354,"▁Bodø":5355,"▁styrke":5356,"▁økonomi":5357,"90":5358,"meldelser":5359,"omb":5360,"▁Hall":5361,"▁time":5362,"▁reaksjon":5363,"▁Con":5364,"▁tran":5365,"▁gass":5366,"▁nyhetsbyrå":5367,"▁Stabæk":5368,"▁Rek":5369,"▁ambass":5370,"▁(5":5371,"▁Strand":5372,"▁Dagbladet.\n":5373,"▁islam":5374,"▁Tot":5375,"▁Harei":5376,"hl":5377,"▁selvsagt":5378,"▁av.\n":5379,"SEN\n":5380,"▁400":5381,"US":5382,"osjon":5383,"▁(F":5384,"▁(ANB-NTB)\n":5385,"▁Pu":5386,"siden":5387,"andel":5388,"oni":5389,"y.\n":5390,"▁sang":5391,"▁scen":5392,"anskje":5393,"stedet":5394,"uer":5395,"▁\n":5396,"▁navnet":5397,"stitutt":5398,"▁engelsk":5399,"onen":5400,"rifter":5401,"▁trygg":5402,"on.\n":5403,"ming":5404,"▁selv,":5405,"▁sjeld":5406,"▁Lag":5407,"retning":5408,"rets":5409,"▁hentet":5410,"▁Mandag":5411,"▁lar":5412,"▁Jam":5413,"▁greit":5414,"▁registrert":5415,"▁radi":5416,"ksis":5417,"▁arrest":5418,"▁Daniel":5419,"▁sosial":5420,"▁46":5421,"▁mål.\n":5422,"▁utfordring":5423,"ensiv":5424,"ino":5425,"▁(200":5426,"▁tyder":5427,"følgelig":5428,"▁skadet":5429,"▁Onsdag":5430,"▁fisk":5431,"aden":5432,"▁ekstrem":5433,"▁pot":5434,"▁Island":5435,"▁etapp":5436,"▁byr":5437,"▁Sund":5438,"▁relig":5439,"▁visste":5440,"▁bygget":5441,".)":5442,"lt":5443,"stemet":5444,"▁hjemm":5445,"▁Fort":5446,"add":5447,"▁Gra":5448,"▁Kle":5449,"▁grunnlag":5450,"▁basert":5451,"▁skutt":5452,"trent":5453,"▁insp":5454,"ifin":5455,"standen":5456,"jener":5457,"▁staten":5458,"▁Oslo,":5459,"▁begynn":5460,"▁Sim":5461,"fart":5462,"A-":5463,"▁tilgjeng":5464,"▁etter\n":5465,"▁steg":5466,"▁vert":5467,"▁presenter":5468,"▁også\n":5469,"▁lengre":5470,"▁Fj":5471,"gum":5472,"▁lover":5473,"rives":5474,"▁måten":5475,"ec":5476,"▁unngå":5477,"rale":5478,"▁Pet":5479,"▁NOR":5480,"▁oss.\n":5481,"▁ham.\n":5482,"▁Ei":5483,"▁Kø":5484,"kert":5485,"▁Jar":5486,"▁de\n":5487,"▁øyeb":5488,"▁mine":5489,"▁ønske":5490,"apir":5491,"▁Bank":5492,"▁operasjonsleder":5493,"▁2003":5494,"▁Hansen":5495,"aby":5496,"el\n":5497,"▁Kanskje":5498,"askin":5499,"ER:":5500,"edal":5501,"strasjon":5502,"ken.\n":5503,"forbundet":5504,"sberg":5505,"former":5506,"rivil":5507,"▁opplever":5508,"▁omfattende":5509,"▁lørdag.\n":5510,"▁Hvordan":5511,"assert":5512,"▁Hagen":5513,"lig,":5514,"▁NATO":5515,"▁identi":5516,"▁retning":5517,"▁rettss":5518,"▁medlemmer":5519,"▁Aas":5520,"▁Ras":5521,"▁kines":5522,"▁Kjetil":5523,"▁selve":5524,"▁190":5525,"▁Marit":5526,"▁Nils":5527,"▁Andersen":5528,"▁Lørdag":5529,"▁verste":5530,"▁Fer":5531,"snes":5532,"▁Dei":5533,"▁Universitet":5534,"▁Bakgrunn":5535,"▁omtrent":5536,"▁trekker":5537,"▁Brasil":5538,"▁Gud":5539,"▁my":5540,"oder":5541,"tekter":5542,"ove":5543,"ønder":5544,"▁tillit":5545,"veis":5546,"▁overgang":5547,"er.":5548,"føring":5549,"8)":5550,"▁bist":5551,"peratur":5552,"▁lettere":5553,"ollen":5554,"▁God":5555,"▁versjon":5556,"▁fas":5557,"▁aksep":5558,"ektet":5559,"▁midler":5560,"ulykke":5561,"▁Vår":5562,"▁familie":5563,"▁går.\n":5564,"▁RE":5565,"▁bunn":5566,"▁meg.\n":5567,"stad,":5568,"▁PÅ":5569,"▁fredag.\n":5570,"▁kvartal":5571,"iat":5572,"isker":5573,"svei":5574,"▁1.\n":5575,"▁2011":5576,"ringen":5577,"▁alkoh":5578,"ktet":5579,"NN":5580,"skjær":5581,"▁Gi":5582,"▁bygd":5583,"serte":5584,"▁AFP":5585,"▁Tirsdag":5586,"▁den\n":5587,"▁2009":5588,"-VM":5589,"▁forvent":5590,"▁Jacob":5591,"▁kjørt":5592,"▁E-post":5593,"smannen":5594,"▁6.":5595,"▁Statens":5596,"el,":5597,"▁funn":5598,"burg":5599,"▁rente":5600,"frik":5601,"▁skolen":5602,"elu":5603,"n.\n":5604,"oper":5605,"▁vurdere":5606,"inter":5607,"▁hei":5608,"▁skikkelig":5609,"▁prisen":5610,"ün":5611,"▁offisi":5612,"us\n":5613,"▁erst":5614,"▁sh":5615,"itte":5616,"områ":5617,"sne":5618,"▁tid,":5619,"▁Dagsav":5620,"▁færre":5621,"▁grå":5622,"▁invest":5623,"vile":5624,"▁Torsdag":5625,"alk":5626,"re\n":5627,"▁gangen":5628,"▁Sammen":5629,"▁video":5630,"▁Neste":5631,"anken":5632,"vo":5633,"▁Real":5634,"▁mek":5635,"▁øker":5636,"▁Nederland":5637,"skole":5638,"aner":5639,"avisen":5640,"øya":5641,"▁am":5642,"-Tr":5643,"▁bred":5644,"mund":5645,"IV":5646,"▁inneb":5647,"edag":5648,"▁forskning":5649,"re,":5650,"▁22.":5651,"▁Delt":5652,"▁næringsliv":5653,"▁ankl":5654,"bes":5655,"▁dyp":5656,"gra":5657,"prisen":5658,"▁fang":5659,"iger":5660,"ish":5661,"▁enig":5662,"▁mon":5663,"s.":5664,"▁brudd":5665,"▁Nordlys":5666,"▁meldt":5667,"▁forskjell":5668,"RIST":5669,"▁positiv":5670,"▁Begge":5671,"rapp":5672,"▁Heg":5673,"atiske":5674,"▁rammet":5675,"▁17.":5676,"86":5677,"▁Barcel":5678,"vek":5679,"▁kjære":5680,".30":5681,"▁Bø":5682,"▁7.":5683,"▁tøff":5684,"forsker":5685,"album":5686,"▁VI":5687,"vind":5688,"▁endring":5689,"▁høye":5690,"▁inneholder":5691,"bl":5692,"▁ch":5693,"▁påpeker":5694,"▁klokka":5695,"▁1-0":5696,"▁forven":5697,"▁årsak":5698,"▁fremdeles":5699,"▁2.\n":5700,"ktiv":5701,"▁Pe":5702,"uf":5703,"▁Tromsø\n":5704,"▁titt":5705,"igital":5706,"NE":5707,"ive":5708,"▁biler":5709,"esten":5710,"etekt":5711,"ogen":5712,"▁Din":5713,"▁Dram":5714,"▁Air":5715,"arbeidet":5716,"▁pak":5717,"▁up":5718,"▁bod":5719,"atr":5720,"▁app":5721,"▁restaur":5722,"▁Ag":5723,"meste":5724,"azz":5725,"▁Folke":5726,"▁kompet":5727,"▁huset":5728,"▁flyttet":5729,"alog":5730,"▁tema":5731,"▁onsdag.\n":5732,"forhold":5733,"iali":5734,"▁Italia":5735,"▁nærmest":5736,"▁kalt":5737,"▁om\n":5738,"nordlys":5739,"70":5740,"▁perioden":5741,"æp":5742,"n,":5743,"leve":5744,"ight":5745,"▁forut":5746,"▁ja":5747,"aste":5748,"▁skader":5749,"-d":5750,"ologisk":5751,"▁Johannes":5752,"benhavn":5753,"▁Full":5754,"rud":5755,"▁umiddel":5756,"▁vakt":5757,"▁Hvorfor":5758,"▁yng":5759,"▁opp,":5760,"IAN":5761,"▁Dem":5762,"▁ass":5763,"▁pengene":5764,"▁FOR":5765,"▁ir":5766,"▁redd":5767,"heter":5768,"▁kastet":5769,"▁pol":5770,"um.\n":5771,"▁bedt":5772,"▁Ark":5773,"▁regner":5774,"▁lyst":5775,"▁Op":5776,"▁OG":5777,"▁Vålerenga":5778,"▁Høg":5779,"▁\n":5780,"▁døgn":5781,"ocke":5782,"▁86":5783,"stisk":5784,"bas":5785,"innen":5786,"kring":5787,"sky":5788,"▁då":5789,"▁presset":5790,"sto":5791,"▁8.":5792,"▁10.":5793,"isjonen":5794,"plasser":5795,"▁her,":5796,"risten":5797,"ffer":5798,"alene":5799,"▁muligheten":5800,"uel":5801,"▁ANB":5802,"▁Ari":5803,"▁(T":5804,"▁båt":5805,"A\n":5806,"or,":5807,"▁skul":5808,"▁skuespiller":5809,"▁anlegg":5810,"mord":5811,"▁interess":5812,"▁Helse":5813,"departement":5814,"▁Ex":5815,"anti":5816,"▁enten":5817,"stjene":5818,"gård":5819,"▁varetekt":5820,"▁om.\n":5821,"80":5822,"esund":5823,"▁Stock":5824,"▁svart":5825,"ola":5826,"▁Canad":5827,"▁Sil":5828,"kjente":5829,"kep":5830,"▁tidspunkt":5831,"▁født":5832,"▁alder":5833,"▁tilsku":5834,"over.\n":5835,"▁består":5836,"gin":5837,"▁Gull":5838,"▁kommentere":5839,"▁Einar":5840,"▁vedtak":5841,"▁Em":5842,"▁NM":5843,"▁Eller":5844,"▁tilk":5845,"forn":5846,"skap.\n":5847,"orden":5848,"▁Halvor":5849,"ser\n":5850,"▁mass":5851,"vens":5852,"▁fremtid":5853,"-L":5854,"2)":5855,"klare":5856,"▁Willi":5857,"▁faller":5858,"▁spennende":5859,"små":5860,"▁Vidar":5861,"▁tysk":5862,"▁stein":5863,"▁Pak":5864,"program":5865,"▁skyldes":5866,"▁distrik":5867,"▁påg":5868,"▁oppn":5869,"▁font":5870,"▁kommunikasjon":5871,"▁København":5872,"▁Ra":5873,"▁gjennomsnitt":5874,"apt":5875,"otten":5876,"▁Fre":5877,"▁sosiale":5878,"skrift":5879,"▁ves":5880,"▁Bli":5881,"▁borger":5882,"▁bygger":5883,"▁Musikk":5884,"▁fortelle":5885,"ingen,":5886,"▁Val":5887,"forsvar":5888,"▁Søndag":5889,"gjorde":5890,"▁dessuten":5891,"nordlys.no\n":5892,"▁kombin":5893,"/MMS":5894,"▁alternativ":5895,"ressen":5896,"▁flest":5897,"▁åpner":5898,"▁politiet.\n":5899,"▁SMS/MMS":5900,"▁mandag.\n":5901,"▁narko":5902,"▁torsdag.\n":5903,"▁(B":5904,"▁ligg":5905,"▁priori":5906,"▁Histor":5907,"stall":5908,"▁medier":5909,"▁kaller":5910,"▁utviklingen":5911,"anten":5912,"▁vare":5913,"▁kontrol":5914,"▁glem":5915,"▁Ast":5916,"svenn":5917,"stopp":5918,"▁sliter":5919,"▁saken\n":5920,"▁Sæ":5921,"▁kirke":5922,"▁hodet":5923,"▁Try":5924,"anne":5925,"▁lese":5926,"urd":5927,"▁praksis":5928,"▁Tlf":5929,"▁masse":5930,"▁runde":5931,"▁alvorlige":5932,"▁hom":5933,"anc":5934,"▁hyl":5935,"alla":5936,"▁EU-":5937,"▁henhold":5938,"har":5939,"▁meldte":5940,"▁populære":5941,"udsjett":5942,"▁Australi":5943,"foss":5944,"EI":5945,"us,":5946,"kehus":5947,"▁anmel":5948,"▁Nic":5949,"▁uttrykk":5950,"▁oppgjør":5951,"▁tirsdag.\n":5952,"▁Jørgen":5953,"▁Ram":5954,"ington":5955,"▁bekreftet":5956,"▁sykkel":5957,"anerne":5958,"▁ind":5959,"utselig":5960,"organisasjon":5961,"▁Øystein":5962,"▁Ba":5963,"-si":5964,"et.":5965,"▁Vide":5966,"▁NTB\n":5967,"▁nyhetsbyrået":5968,"ård":5969,"▁Nav":5970,"▁fjor,":5971,"▁bank":5972,"▁langrenn":5973,"-plass":5974,"ansvar":5975,"værende":5976,"den\n":5977,"▁banen":5978,"▁materi":5979,"▁Ski":5980,"▁sjanse":5981,"PP":5982,"▁valgkamp":5983,"▁skaper":5984,"▁sår":5985,"hjem":5986,"ent.\n":5987,"ærlighet":5988,"▁Sunn":5989,"▁Øster":5990,"▁kvalitet":5991,"sessen":5992,"RA":5993,"▁lærer":5994,"▁Helge":5995,"75":5996,"▁hvite":5997,"▁Tra":5998,"HO":5999,"▁leser":6000,"▁målet":6001,"▁menneske":6002,"repre":6003,"▁IS":6004,"▁USA\n":6005,"▁Obama":6006,"40":6007,"▁kampen.\n":6008,"▁konkret":6009,"vinner":6010,"▁steng":6011,"▁Øv":6012,"▁ven":6013,"▁Ka":6014,"▁forhånd":6015,"sle":6016,"▁talsmann":6017,"▁keeper":6018,"▁Angel":6019,"fang":6020,"▁Film":6021,"▁Lø":6022,"▁umu":6023,"stilt":6024,"▁81":6025,"▁epis":6026,"▁Lillestrøm":6027,"▁Northug":6028,"histor":6029,"ent\n":6030,"▁(6":6031,"▁Annonse":6032,"▁Ned":6033,"sdirektør":6034,"▁11.":6035,"▁musik":6036,"het,":6037,"▁Jonas":6038,"rende":6039,"▁fiske":6040,"▁Kron":6041,"mod":6042,"▁Eir":6043,"▁em":6044,"▁skog":6045,"▁Je":6046,"lett":6047,"▁drik":6048,"▁saken,":6049,"▁Gaz":6050,"ukt":6051,"▁opphav":6052,"▁stadion":6053,"▁framtid":6054,"▁bildet":6055,"▁Vol":6056,"ney":6057,"▁Bur":6058,"spris":6059,"sende":6060,"▁rad":6061,"▁Øk":6062,"▁sitte":6063,"▁starte":6064,"▁redning":6065,"▁før.\n":6066,"▁USA.\n":6067,"▁løsning":6068,"at\n":6069,"▁Mest":6070,"o-":6071,"▁VM-":6072,"iteen":6073,"▁døm":6074,"▁cup":6075,"riks":6076,"▁Ullev":6077,"▁Tør":6078,"▁fransk":6079,"▁forbered":6080,"▁Mik":6081,"▁moderne":6082,"▁ung":6083,"▁øver":6084,"el.\n":6085,"DI":6086,"▁universitet":6087,".com":6088,"▁hvilken":6089,"▁kjemp":6090,"vig":6091,"▁id":6092,"lig\n":6093,"▁dyre":6094,"▁SCANPIX\n":6095,"▁Energi":6096,"▁jenter":6097,"▁han\n":6098,"jek":6099,"▁delta":6100,"▁selvfølgelig":6101,"▁*********":6102,"▁følgende":6103,"skol":6104,"▁Dessuten":6105,"▁Twitter":6106,"▁oppdrag":6107,"▁tog":6108,"▁Oslo\n":6109,"▁Sveit":6110,"▁II":6111,"▁Rich":6112,"områd":6113,"▁motor":6114,"skip":6115,"sorg":6116,"▁Næringsliv":6117,"▁Larsen":6118,"▁kjempe":6119,"▁dobbelt":6120,"▁Grupp":6121,"▁pe":6122,"▁vurderer":6123,"▁argum":6124,"▁videre.\n":6125,"aling":6126,"hu":6127,"bygging":6128,"▁Sø":6129,"▁invi":6130,"vesenet":6131,"▁havnet":6132,"▁William":6133,"fjell":6134,"▁Frode":6135,"▁jule":6136,"▁9.":6137,"nem":6138,"▁sølv":6139,"30":6140,"urer":6141,"▁stoff":6142,"▁skuff":6143,"enk":6144,"▁erstat":6145,"-G":6146,"▁Wi":6147,"▁innrømmer":6148,"▁Kjel":6149,"▁atom":6150,"lar":6151,"olusjon":6152,"▁der.\n":6153,"▁AR":6154,"▁Kom":6155,"▁sentrale":6156,"▁konkurranse":6157,"▁Premier":6158,"▁avgjørende":6159,"▁dem,":6160,"▁ellers":6161,"▁diskuter":6162,"ala":6163,"18":6164,"▁tiltalt":6165,"▁vekk":6166,"ekte":6167,"▁spar":6168,"▁år\n":6169,"▁Ke":6170,"▁Ør":6171,"RO":6172,"åp":6173,"▁FNs":6174,"edlem":6175,"▁ønsk":6176,"▁grep":6177,"erled":6178,"▁tilh":6179,"banen":6180,"▁Resultat":6181,"in,":6182,"▁turist":6183,"▁bos":6184,"▁Senter":6185,"istiske":6186,"▁enor":6187,"▁stund":6188,"sken":6189,"ikopter":6190,"▁Siv":6191,"▁gjennomført":6192,"▁Andr":6193,"▁Storbritannia":6194,"▁Johansen":6195,"▁Telenor":6196,"sty":6197,"▁drive":6198,"▁2006\n":6199,"▁Nasjon":6200,"▁uen":6201,"solutt":6202,"▁ansvaret":6203,"▁tilgang":6204,"▁slapp":6205,"ammer":6206,"hopp":6207,"▁merke":6208,"▁tilsvarende":6209,"▁redde":6210,"▁stig":6211,"m.":6212,"▁Black":6213,"2)\n":6214,"▁Tar":6215,"astrof":6216,"▁Alf":6217,"▁undersø":6218,"▁fulgte":6219,"▁ettersom":6220,"▁Stockholm":6221,"mede":6222,"▁Pri":6223,"▁rettighet":6224,"▁Aftenbladet":6225,"iteten":6226,"▁alkohol":6227,"▁stede":6228,"▁virksomhet":6229,"selskapet":6230,"▁foresl":6231,"otte":6232,"jal":6233,"▁th":6234,"▁Send":6235,"▁kr":6236,"▁150":6237,"▁annerled":6238,"▁semifin":6239,"spert":6240,"▁gjøres":6241,"▁Kim":6242,"TV":6243,"EF":6244,"▁Champ":6245,"▁Iver":6246,"ury":6247,"barn":6248,"essver":6249,"▁Sog":6250,"kk.\n":6251,"aster":6252,"▁Fle":6253,"▁muligheter":6254,"▁Amerik":6255,"alget":6256,"▁årene.\n":6257,"▁frivil":6258,"▁FV":6259,"▁strid":6260,"10":6261,"▁Nes":6262,"vide":6263,"▁organ":6264,"▁Ã":6265,"styret":6266,"▁Alexander":6267,"aktig":6268,"▁økning":6269,"ins":6270,"-Trøndelag":6271,"▁jern":6272,"▁LES":6273,"▁profil":6274,"risk":6275,"▁Clin":6276,"sminist":6277,"▁nø":6278,"m.\n":6279,"▁aktør":6280,"we":6281,"ekamp":6282,"▁spark":6283,"resultat":6284,"▁Haugesund":6285,"▁15.":6286,"▁toppen":6287,"napp":6288,"▁professor":6289,"ca":6290,"▁helgen":6291,"alt,":6292,"▁Kor":6293,"▁Ford":6294,"▁Skjer":6295,"▁kvalifiser":6296,"▁markedet":6297,"▁indi":6298,"skaper":6299,"dal.\n":6300,"▁%":6301,"▁verken":6302,"24":6303,"▁tenkt":6304,"unnel":6305,"▁Fem":6306,"delser":6307,"▁internett":6308,"▁George":6309,"▁begynnelsen":6310,"▁tale":6311,"▁Sal":6312,"river":6313,"7)":6314,"ste\n":6315,"▁OS":6316,"kurran":6317,"▁overvå":6318,"▁virke":6319,"▁dansk":6320,"▁Nye":6321,"ie.\n":6322,"▁Eirik":6323,"▁fortsatte":6324,"▁Hellas":6325,"elser.\n":6326,"upp":6327,"gifter":6328,"▁oppdaget":6329,"▁påstand":6330,"▁Bonde":6331,"venn":6332,"▁Deretter":6333,"▁Arild":6334,"▁siden,":6335,"▁strå":6336,"ave":6337,"▁Pål":6338,"▁Rei":6339,"▁Gjer":6340,"▁1999":6341,"ose":6342,"▁Sande":6343,"▁slekt":6344,"▁bild":6345,"bakk":6346,"▁Breiv":6347,"my":6348,"▁39":6349,"▁skadd":6350,"▁bra,":6351,"▁vore":6352,"▁områder":6353,"▁kjører":6354,"▁Epost":6355,"S-":6356,"▁hører":6357,"sgrupp":6358,"ømme":6359,"ksjonen":6360,"▁fjerne":6361,"adet":6362,"▁myndighetene":6363,"rab":6364,"▁etablert":6365,"▁00\n":6366,"økonom":6367,"▁erkl":6368,"kkelig":6369,"▁St.":6370,"▁resultater":6371,"▁endre":6372,"▁Nation":6373,"kre":6374,"undet":6375,"▁kjøper":6376,"okken":6377,"ras":6378,"urder":6379,"▁mangler":6380,"▁konge":6381,"▁37":6382,"▁forstår":6383,"▁konkurr":6384,"lands":6385,"vann":6386,"▁Bjer":6387,"le,":6388,"▁Moh":6389,"5)\n":6390,"fyl":6391,"▁ikke,":6392,"▁2002":6393,"hver":6394,"stoff":6395,"rich":6396,"▁Wash":6397,"▁opposisjon":6398,"▁slipper":6399,"▁tilfeller":6400,"▁redusert":6401,"▁forsøkte":6402,"ryt":6403,"▁brans":6404,"▁Fød":6405,"▁konsekven":6406,"▁støtter":6407,"-size":6408,"▁kjøpt":6409,"▁TI":6410,"▁kreft":6411,"serer":6412,"istisk":6413,"▁font-size":6414,"▁rekl":6415,"inger.\n":6416,"usti":6417,"▁utfor":6418,"▁2-0":6419,"estivalen":6420,"▁sesongen.\n":6421,"▁eventuelt":6422,"ent,":6423,"▁fjern":6424,"▁Følg":6425,"▁Norweg":6426,"▁møtt":6427,"▁Rad":6428,"▁delen":6429,"▁kommende":6430,"▁arbeidspl":6431,"iene":6432,"E:":6433,"▁venner":6434,"▁Bay":6435,"nær":6436,"▁favoritt":6437,"▁litter":6438,"▁Mal":6439,"▁val":6440,"▁gis":6441,"▁drepte":6442,"7)\n":6443,"somme":6444,"nende":6445,"▁Avis":6446,"▁2012":6447,"▁begrens":6448,"▁utvikle":6449,"mer,":6450,"▁Hvem":6451,"▁omsorg":6452,"▁12.":6453,"ano":6454,"tingen":6455,"▁utelu":6456,"▁møtet":6457,"▁koster":6458,"▁ul":6459,"ump":6460,"▁fint":6461,"▁Personer":6462,"▁fød":6463,"ktoratet":6464,"▁glob":6465,"▁nektet":6466,"▁kne":6467,"rister":6468,"ningen,":6469,"bruker":6470,"1)":6471,"▁altfor":6472,"▁Ky":6473,"iskop":6474,"▁Hydro":6475,"▁bror":6476,"▁utny":6477,"▁skrem":6478,"▁konst":6479,"byen":6480,"▁fotograf":6481,"send":6482,"vinn":6483,"sab":6484,"ield":6485,"samling":6486,"är":6487,"▁modell":6488,"øye":6489,"▁stått":6490,"3)\n":6491,"ellen":6492,"▁positive":6493,"gde":6494,"stet":6495,"▁Hele":6496,"▁Været":6497,"rop":6498,"ittel":6499,"▁kampene":6500,"▁avslør":6501,"tion":6502,"▁året.\n":6503,"▁elever":6504,"ffen":6505,"▁prem":6506,"ubber":6507,"▁politiker":6508,"sopp":6509,"nett":6510,"▁sats":6511,"▁Arsenal":6512,"▁milliard":6513,"▁Nytt":6514,"▁;":6515,"▁gratis":6516,"▁Hov":6517,"▁penge":6518,"tab":6519,"▁var\n":6520,"sette":6521,"yer":6522,"▁planlegg":6523,"▁Årets":6524,"▁preget":6525,"▁bevisst":6526,"▁etabler":6527,"▁Topp":6528,"stu":6529,"ulti":6530,"▁artikkelen":6531,"▁kø":6532,"akta":6533,"▁tilgjengelig":6534,"iktet":6535,"elsen,":6536,"▁Hammer":6537,"▁krigen":6538,"▁turner":6539,"iland":6540,"▁Tsj":6541,"▁punkt":6542,"▁nasjonale":6543,"sess":6544,"8)\n":6545,"ace":6546,"▁2-1":6547,"um,":6548,"▁friidrett":6549,"▁kritisk":6550,"▁Adresse":6551,"▁ford":6552,"▁kostnad":6553,"▁ulovlig":6554,"▁supp":6555,"ba":6556,"band":6557,"▁slu":6558,"▁ref":6559,"▁israelske":6560,"itar":6561,"▁spørsmålet":6562,"▁Solskjær":6563,"eks":6564,"▁Støre":6565,"▁BILDER":6566,"▁trenings":6567,"▁utgjør":6568,"ensin":6569,"▁16.":6570,"▁land.\n":6571,"atistikk":6572,"▁1-1":6573,"▁Ali":6574,"øy\n":6575,"landet.\n":6576,"▁14.":6577,"▁halvparten":6578,"▁fullstendig":6579,"▁evak":6580,"-tiden":6581,"RISTIAN":6582,"▁etterpå":6583,"ud,":6584,"▁optim":6585,"▁sykdom":6586,"▁ungdoms":6587,"▁Rett":6588,"ømmer":6589,"▁Terningkast:\n":6590,"us.\n":6591,"ronse":6592,"▁diskusjon":6593,"skolen":6594,"▁peker":6595,"ollisjon":6596,"▁Grøn":6597,"sentanter":6598,"▁1985":6599,"um\n":6600,"▁kons":6601,"iten":6602,"▁20.":6603,"▁Roy":6604,"▁plate":6605,"orienter":6606,"le.\n":6607,"▁uttry":6608,"▁Breivik":6609,"▁Finnmark":6610,"FF":6611,"▁faren":6612,"▁(K":6613,"▁overrasket":6614,"▁dist":6615,"▁er,":6616,"▁løy":6617,"▁sov":6618,"▁merket":6619,"▁defin":6620,"myndighet":6621,"ari":6622,"▁1000":6623,"delt":6624,"▁verden.\n":6625,"llust":6626,"▁Aftenposten.\n":6627,"▁interesse":6628,"▁engelske":6629,"4)\n":6630,"▁«B":6631,"▁planer":6632,"▁E-post:":6633,"estad":6634,"▁hevdet":6635,"jo":6636,"bør":6637,"▁morgen.\n":6638,"▁absolutt":6639,"▁dreier":6640,"▁neppe":6641,"▁militære":6642,"sfall":6643,"▁Hjem":6644,"▁13.":6645,"shus":6646,"yret":6647,".02.2008":6648,"▁departem":6649,"▁42":6650,"lesund":6651,"stid":6652,"▁NTB)\n":6653,"▁Grand":6654,"3)":6655,"▁4,":6656,"▁legges":6657,"▁Wor":6658,"▁redusere":6659,"OK":6660,"▁glede":6661,"sling":6662,"▁utvalg":6663,"▁spurte":6664,"▁meir":6665,"▁Bjar":6666,"▁Kil":6667,"jan":6668,"sråd":6669,"visning":6670,"må":6671,"▁angrepet":6672,"▁Ga":6673,"▁Digital":6674,"▁spek":6675,"▁Berlin":6676,"▁voldtekt":6677,"▁Aller":6678,"▁Kol":6679,"▁Nett)":6680,"▁smer":6681,"▁kjenn":6682,"▁nettet":6683,"aktiv":6684,"skog":6685,"▁hindre":6686,"poeng":6687,"▁Jer":6688,"▁innebærer":6689,"▁opphold":6690,"▁internasjonal":6691,"85":6692,"vik.\n":6693,"xic":6694,"▁bal":6695,"▁spillet":6696,"▁oppmerksomhet":6697,"ster.\n":6698,"-tallet.\n":6699,"▁Washington":6700,"essverre":6701,"▁oppe":6702,"assen.\n":6703,"▁omkring":6704,"▁tilsyn":6705,"▁flyt":6706,"▁nærmeste":6707,"egn":6708,"▁middel":6709,"▁ligge":6710,"industri":6711,"ros":6712,"▁USA,":6713,"▁avhengig":6714,"▁for.\n":6715,"▁nede":6716,"UL":6717,"▁streik":6718,"▁IL":6719,"▁Første":6720,"▁arrange":6721,"tegi":6722,"▁relativt":6723,"br":6724,"▁André":6725,"▁And":6726,"▁pressekonferanse":6727,"▁Blogg":6728,"▁aner":6729,"▁Clinton":6730,"▁hverdag":6731,"▁Sogn":6732,"▁Håkon":6733,"evin":6734,"▁BBC":6735,"▁gang,":6736,"▁stoppet":6737,"igh":6738,"4)":6739,"▁Ivar":6740,"▁utenlandske":6741,"tten":6742,"▁hørt":6743,"ansert":6744,"▁bekymret":6745,"▁lo":6746,"▁markeds":6747,"ele":6748,"▁også.\n":6749,"GER":6750,"▁transport":6751,"▁resultatet":6752,"▁1990":6753,"▁slippe":6754,"▁lanser":6755,"▁Fry":6756,"assende":6757,"ålet":6758,"▁søke":6759,"▁verk":6760,"▁utenriksminister":6761,"▁avtalen":6762,"▁tids":6763,"▁vanlige":6764,"▁(ANB-NTB":6765,"-J":6766,"▁der,":6767,"uc":6768,"-å":6769,"▁tiltalte":6770,"▁rike":6771,"▁utvid":6772,"▁Ukra":6773,"60":6774,"regjer":6775,"▁till":6776,"▁beklag":6777,"▁ge":6778,"▁(C":6779,"IT":6780,"▁inng":6781,"▁rapporter":6782,"▁utslipp":6783,"okker":6784,":01":6785,"men.\n":6786,"▁funksjon":6787,"ggen":6788,"▁spre":6789,"ita":6790,"-politi":6791,"sfjord":6792,"▁hovedsak":6793,"11":6794,"▁uro":6795,"▁NY":6796,"▁Fylke":6797,"ember.\n":6798,"▁selger":6799,"itz":6800,"▁Son":6801,"▁tonn":6802,"plikt":6803,"ies":6804,"dert":6805,"▁konsern":6806,"ømte":6807,"▁(P":6808,"▁flag":6809,"▁utviklet":6810,"▁Wh":6811,"▁folket":6812,"▁(t.":6813,"▁Gul":6814,"▁Store":6815,"▁tung":6816,"▁trakk":6817,"dahl":6818,"gaver":6819,"▁jente":6820,"▁tilbake.\n":6821,"▁styrker":6822,"tta":6823,"▁bon":6824,"▁Champion":6825,"illa":6826,"▁dokumenter":6827,"▁dagene":6828,"esjon":6829,"▁fleire":6830,"▁fekk":6831,"kelige":6832,"setter":6833,"▁hjelper":6834,"▁tilkny":6835,"ockey":6836,"annen":6837,"arn":6838,"▁plutselig":6839,"▁75":6840,"▁ent":6841,"▁Hal":6842,"▁område":6843,"▁Hadde":6844,"asjon.\n":6845,"▁dårlige":6846,"agen":6847,"▁bedrifter":6848,"▁driv":6849,"▁Chelsea":6850,"att.\n":6851,"▁prest":6852,"▁kvar":6853,"▁eiendom":6854,"▁OL-":6855,"▁Sjekk":6856,"▁men\n":6857,"/A":6858,"emark":6859,"▁tas":6860,"▁nærheten":6861,"smålet":6862,"▁Klubb":6863,"▁Fo":6864,"marked":6865,"abrikk":6866,"▁prak":6867,"▁gleder":6868,"▁over.\n":6869,"▁forsker":6870,"▁hemmelig":6871,"jor":6872,"tering":6873,"▁unntak":6874,"-gull":6875,"▁Lin":6876,"▁innsat":6877,"egående":6878,"▁av,":6879,"▁Universitetet":6880,"▁sein":6881,"or:":6882,"nene":6883,"▁Ev":6884,"▁opplevd":6885,"/0":6886,"▁tver":6887,"▁Van":6888,"undene":6889,"▁Velg":6890,"urner":6891,"ologiske":6892,"▁Bol":6893,"▁type":6894,"▁Ib":6895,"▁Spesi":6896,"skritt":6897,"▁SP":6898,"▁Pakistan":6899,"▁avviser":6900,"▁andre.\n":6901,"▁Bilde":6902,"▁erfaring":6903,"▁Ir":6904,"▁høyde":6905,"▁ettermiddag.\n":6906,"▁Univers":6907,"▁ryd":6908,"miljø":6909,"▁Pat":6910,"▁imponer":6911,"▁Børs":6912,"▁kjærlighet":6913,"▁røyk":6914,"▁********":6915,"▁kjønn":6916,"▁tråd":6917,"legge":6918,"▁perf":6919,"▁Norwegian":6920,"delingen":6921,"▁beskytt":6922,"iør":6923,"føres":6924,"▁nyttår":6925,"elandsvenn":6926,"▁opplysninger":6927,"stått":6928,"▁planen":6929,"▁gu":6930,"lund":6931,"▁mesterskap":6932,"▁frisk":6933,"▁lager":6934,"ara":6935,"nader":6936,"elli":6937,"itets":6938,"▁interessert":6939,"▁år.":6940,"▁Ran":6941,"▁ham,":6942,"▁yr":6943,"sborg":6944,"▁Led":6945,"ie,":6946,"▁voksne":6947,"▁Dom":6948,"▁konkluder":6949,"▁respekt":6950,"rekord":6951,":30":6952,"mor":6953,"nivå":6954,"mon":6955,"▁Øyvind":6956,"00\n":6957,"me,":6958,"▁traff":6959,"▁ordfører":6960,"▁(ANB)\n":6961,"▁Gjennom":6962,"▁parker":6963,"▁Foss":6964,"▁189":6965,"▁Nok":6966,"▁Ålesund":6967,"is\n":6968,"▁Rob":6969,"▁politikere":6970,"rimelig":6971,"alder":6972,"▁(M":6973,"▁forsøkt":6974,"1)\n":6975,"▁hjemmel":6976,"▁reddet":6977,"sbe":6978,"▁NRK.\n":6979,"▁truet":6980,"hild":6981,"▁tekst":6982,"▁arrestert":6983,"▁trø":6984,"▁FC":6985,"▁sjanser":6986,"▁Hver":6987,"isere":6988,"elag":6989,"▁grov":6990,"slov":6991,"ndal":6992,"▁utgangspunktet":6993,"▁landsby":6994,"▁live":6995,"abil":6996,"▁lyd":6997,"▁gjennomføre":6998,"6)":6999,"▁nekter":7000,"▁ulykken":7001,"▁avt":7002,"orsk":7003,"▁svak":7004,"▁Sky":7005,"▁flott":7006,"▁nyheter":7007,"▁eksper":7008,"▁renn":7009,"m\n":7010,"arar":7011,"▁nomin":7012,"▁Hed":7013,"▁alli":7014,"▁stengt":7015,"▁før,":7016,"▁verdenscup":7017,"99)":7018,"▁høyeste":7019,"▁Dagbladet.no":7020,"esterett":7021,"EN\n":7022,"▁bidrar":7023,"ninger,":7024,"▁sender":7025,"▁ras":7026,"▁inn.\n":7027,"▁sivile":7028,"▁Amund":7029,"▁nabo":7030,"ité":7031,"–19":7032,"vare":7033,"veien":7034,"ste.\n":7035,"▁Skj":7036,"skom":7037,"ior":7038,"atør":7039,"▁oversikt":7040,"dt.\n":7041,"verdig":7042,"fel":7043,"▁62":7044,"▁umiddelbart":7045,"arth":7046,"▁positivt":7047,"vn.no\n":7048,"kan":7049,"15":7050,"▁2014":7051,"▁Hit":7052,"▁vitne":7053,"▁Lo":7054,"elsk":7055,"leier":7056,"▁annonse":7057,"▁18.":7058,"▁konsent":7059,"-5":7060,"▁umulig":7061,"▁i.\n":7062,"▁doping":7063,"røy":7064,"▁Kå":7065,"▁høsten":7066,"▁forslaget":7067,"▁Nilsen":7068,"▁følte":7069,"▁gjenopp":7070,"oden":7071,"▁ambul":7072,"▁håndball":7073,"▁Mye":7074,"▁kaptein":7075,"wood":7076,"▁inntrykk":7077,"▁løsl":7078,"▁skapte":7079,"▁Aftenblad":7080,"▁fritt":7081,"▁Pla":7082,"prø":7083,"▁kontor":7084,"▁barnet":7085,"rut":7086,"▁spanske":7087,"alske":7088,"▁oppdatert\n":7089,"▁Kjelder\n":7090,"▁Deltakere":7091,"▁Kristiansand\n":7092,"▁Erna":7093,"▁aktuelle":7094,"▁Park":7095,"▁Ronald":7096,"▁Helt":7097,"▁2013":7098,"skjer":7099,"▁midten":7100,"▁temperatur":7101,"▁skyld":7102,"▁Cor":7103,"onne":7104,"@nordlys.no\n":7105,"▁Lil":7106,"▁avsluttet":7107,"▁forbud":7108,"▁gul":7109,"▁noko":7110,"fisert":7111,"utvikling":7112,"▁tvang":7113,"▁øl":7114,"T:\n":7115,"6)\n":7116,"eliv":7117,"edskap":7118,"ax":7119,"brig":7120,"▁svare":7121,"▁2015":7122,"▁skuffet":7123,"brann":7124,"ottenham":7125,"▁potensi":7126,"▁styret":7127,"urtig":7128,"ingen\n":7129,"▁het":7130,"plom":7131,"▁Putin":7132,"dommer":7133,"▁bensin":7134,"▁gjerning":7135,"ugh":7136,"▁44":7137,"▁Stre":7138,"jev":7139,"▁Annonser":7140,"000000":7141,"etning":7142,"▁sprin":7143,"▁Egil":7144,"▁Bed":7145,"▁Tlf:":7146,"▁streng":7147,"▁Aa":7148,"ettighet":7149,"▁Roms":7150,"▁sjølv":7151,"kken.\n":7152,"▁Nord-Norge":7153,"▁halvt":7154,"▁Richard":7155,"▁starten":7156,"▁#000000":7157,"kens":7158,"området":7159,"▁forsvant":7160,"dal\n":7161,"▁We":7162,"essen":7163,"▁col":7164,"▁krist":7165,"uset":7166,"▁ufor":7167,"▁selvmord":7168,"▁pause":7169,"▁Innen":7170,"▁kyst":7171,"▁neder":7172,"▁Tomm":7173,"▁2\n":7174,"oto":7175,"▁forsøker":7176,"▁is":7177,"▁Mos":7178,"▁femte":7179,"▁marker":7180,"lede":7181,"▁Ler":7182,"alj":7183,"▁skapt":7184,"▁energ":7185,"▁Arn":7186,"▁vindu":7187,"fe":7188,"UR":7189,"lei":7190,"▁aksjer":7191,"mer\n":7192,"klusjon":7193,"-F":7194,"▁Math":7195,"▁fysisk":7196,"EG":7197,"denter":7198,"unge":7199,"smenn":7200,"▁Ord":7201,"▁Maria":7202,"▁typ":7203,"▁sjansen":7204,"▁Minst":7205,"akken":7206,"bilder":7207,"▁smak":7208,"▁bra.\n":7209,"at.\n":7210,"▁19.":7211,"▁Web":7212,"EM":7213,"▁Dahl":7214,"▁ned.\n":7215,"▁Mang":7216,"tor":7217,"esen":7218,"sem":7219,"▁Giske":7220,"▁bistand":7221,"▁Fjell":7222,"▁skal\n":7223,"utningen":7224,"sset":7225,"▁Osl":7226,"▁barn.\n":7227,"▁bøker":7228,"▁Skog":7229,"▁er.\n":7230,"byrå":7231,"▁Mand":7232,"▁klasse":7233,"▁Kontakt":7234,"slår":7235,"▁gruppen":7236,"▁olj":7237,"agbladet":7238,"amin":7239,"▁48":7240,"▁uttalte":7241,"▁Bag":7242,"▁regi":7243,"ovic":7244,"▁nedgang":7245,"▁plu":7246,"▁plass.\n":7247,"▁Super":7248,"ote":7249,"▁generelt":7250,"▁web":7251,"posten":7252,"▁bydel":7253,"▁skyte":7254,"▁Vinter":7255,"72":7256,"▁bære":7257,"verdi":7258,"ikken":7259,"▁opplyste":7260,"iserer":7261,"▁historien":7262,"▁Po":7263,"▁effekt":7264,"mot":7265,"ateg":7266,"▁43":7267,"▁stoppe":7268,"▁blom":7269,"▁arkite":7270,"▁forhand":7271,"▁Bas":7272,"inen":7273,"▁artikkel":7274,"▁War":7275,"▁avd":7276,"immel":7277,"▁(ANB):\n":7278,"tic":7279,"▁«M":7280,"▁mottatt":7281,"▁#000000;":7282,"▁Franc":7283,"▁Sør-A":7284,"vic":7285,"srepre":7286,"plan":7287,"berg.\n":7288,"▁Vel":7289,"▁hvit":7290,"medlem":7291,"▁betalt":7292,"sider":7293,"▁Målet":7294,"▁et\n":7295,"elsen\n":7296,"▁muse":7297,"-I":7298,"▁annonser":7299,"▁den.\n":7300,"ibli":7301,"▁initi":7302,"▁myk":7303,"▁Mexic":7304,"▁fulgt":7305,"hard":7306,"ts":7307,"ella":7308,"gir":7309,"▁eld":7310,"▁Tottenham":7311,"as\n":7312,"▁Ring":7313,"▁hard":7314,"▁skaffe":7315,"▁kutt":7316,"▁fattig":7317,"lade":7318,"onert":7319,"▁også,":7320,"▁tropp":7321,"▁kompetanse":7322,"▁Saken":7323,"▁Bestill":7324,"▁gav":7325,"▁Aks":7326,"je\n":7327,"▁berre":7328,"▁Hareide":7329,"▁55":7330,"flyt":7331,"ømt":7332,":99)":7333,"▁endringer":7334,"▁dialog":7335,"OS":7336,"▁området.\n":7337,"▁Selskapet":7338,"▁tapt":7339,"▁Jak":7340,"▁klat":7341,"▁øvrig":7342,"▁ca.":7343,"▁Fødsler":7344,"D-":7345,"9)\n":7346,"skraft":7347,"▁løse":7348,"▁prom":7349,"▁KRISTIAN":7350,"antene":7351,"▁papir":7352,"▁Hord":7353,"▁innsats":7354,"▁minste":7355,"▁finale":7356,"▁hygg":7357,"▁øyeblikk":7358,"▁engasjer":7359,"▁Oper":7360,"▁elle":7361,"▁Ki":7362,"▁(201":7363,"5)":7364,"▁Ris":7365,"▁Skar":7366,"▁ansatt":7367,"løst":7368,"▁Sandefjord":7369,":00\n":7370,"▁Bondevik":7371,"▁kan\n":7372,"▁hittil":7373,"▁Japan":7374,"▁front":7375,"▁størr":7376,"▁pressemeld":7377,"fag":7378,"▁anti":7379,"▁Kat":7380,"rap":7381,"▁***":7382,"▁(H":7383,"over,":7384,"DN":7385,"▁oppnå":7386,"▁Idrett":7387,"▁reiste":7388,"gh":7389,"▁Hot":7390,"▁videregående":7391,"▁betydning":7392,"skommun":7393,"ktes":7394,"linger":7395,"▁Tøn":7396,"bun":7397,"▁Ble":7398,"aften":7399,"skrig":7400,"▁Apr":7401,"ekket":7402,"p)":7403,"voll":7404,"▁dig":7405,"▁gli":7406,"▁søker":7407,"▁Sjef":7408,"▁2016":7409,"▁minne":7410,"▁Grim":7411,"▁Cap":7412,"tikker":7413,"skapene":7414,"▁sammens":7415,"ektor":7416,"▁port":7417,"▁A.":7418,"▁løper":7419,"▁Christ":7420,"ader":7421,"▁knapt":7422,"▁Nett.\n":7423,"▁Kristoffer":7424,"▁utdanning":7425,"▁Lou":7426,"▁James":7427,"▁rapporten":7428,"pa":7429,"▁Bergens":7430,"aket":7431,"UTER":7432,"▁sommeren":7433,"▁Arend":7434,"▁solid":7435,"▁Holm":7436,"▁kjøtt":7437,"▁fungerer":7438,"▁lot":7439,"▁Kre":7440,"▁journalist":7441,"▁dommen":7442,"▁forbed":7443,"▁spesial":7444,"▁null":7445,"▁sammen.\n":7446,"▁demokrati":7447,"ör":7448,"-årene":7449,"▁yt":7450,"▁våp":7451,"▁Noe":7452,"▁Tek":7453,"▁seieren":7454,"oft":7455,"agasin":7456,"▁opps":7457,"▁bestemte":7458,"▁Bill":7459,"anker":7460,"▁reagerer":7461,"▁Bern":7462,"ellet":7463,"sadvokat":7464,"▁forbi":7465,"▁skjøt":7466,"▁sørge":7467,"▁bein":7468,"▁bro":7469,"▁Kampen":7470,"blemer":7471,"▁Fir":7472,"▁landene":7473,"AV":7474,"▁regler":7475,"▁Jes":7476,"▁Portug":7477,"▁Det\n":7478,"▁gjent":7479,"▁farlig":7480,"▁Mun":7481,"▁regnet":7482,"▁landet,":7483,"▁List":7484,"▁om,":7485,"▁mobilt":7486,"lt;":7487,"kår":7488,"▁Bei":7489,"▁næring":7490,"v\n":7491,"▁takket":7492,"▁Fæ":7493,"▁buss":7494,"▁billig":7495,"▁politiets":7496,"▁dag\n":7497,"▁trussel":7498,"▁Nar":7499,"▁protest":7500,"▁po":7501,"▁forholdet":7502,"▁grens":7503,"ysten":7504,"▁ulykke":7505,"val":7506,"bro":7507,"▁MER":7508,"nok":7509,"▁teater":7510,"▁af":7511,"▁samle":7512,"uly":7513,"▁mister":7514,"▁Arbeiderpartiet":7515,"oster":7516,"▁roman":7517,"▁begynne":7518,"▁her!\n":7519,"▁gen":7520,"▁fug":7521,"▁Arbeiderparti":7522,"▁(Dagbladet":7523,"▁deltak":7524,"▁besø":7525,"u\n":7526,"▁profesjon":7527,"varet":7528,"mannsrett":7529,"▁stedet.\n":7530,"▁Tekst":7531,"▁Kenn":7532,"▁kilo":7533,"▁inkludert":7534,"▁tenkte":7535,"▁uke.\n":7536,"▁Jobb":7537,"EN:":7538,"▁(199":7539,"meter":7540,"▁heldig":7541,"sch":7542,"▁samfunnet":7543,"▁land,":7544,"▁CO":7545,"▁autom":7546,"▁konsekvens":7547,"▁Magne":7548,"▁Afrik":7549,"irka":7550,"▁kjend":7551,"▁viss":7552,"▁debatten":7553,"▁vinn":7554,"▁Kos":7555,"▁trag":7556,"▁ferie":7557,"▁kul":7558,"▁plassert":7559,"riger":7560,"▁ner":7561,"rerer":7562,"▁likhet":7563,"▁21.":7564,"skjel":7565,"ij":7566,"▁bot":7567,"▁Litt":7568,"▁spilles":7569,"▁fjorår":7570,"stig":7571,"ORT":7572,"rerte":7573,"▁rykket":7574,"▁Østerrike":7575,"▁overraskende":7576,"kommende":7577,"▁aktuelt":7578,"▁brutt":7579,"▁&lt;":7580,"▁Marc":7581,"asjem":7582,"ssam":7583,"▁tel":7584,"▁vent":7585,"▁foreldrene":7586,"▁kvinnelige":7587,"stitu":7588,"ET:":7589,"▁interessant":7590,"▁flyet":7591,",3":7592,"egg":7593,"▁såkalt":7594,"king":7595,"----":7596,".»\n":7597,"▁strek":7598,"▁involvert":7599,"ward":7600,"▁bidrag":7601,"▁nødt":7602,"▁minutter.\n":7603,"▁Dire":7604,"▁Ja":7605,"▁Stem":7606,"sjekter":7607,"▁italienske":7608,"▁presidenten":7609,"▁Donald":7610,"udt":7611,"tall":7612,"iler":7613,"kor":7614,"spillet":7615,"▁kjøpte":7616,"▁upassende":7617,"▁verdt":7618,"▁beskriver":7619,"▁Egyp":7620,"▁mål,":7621,"▁188":7622,"cupen":7623,"▁Anton":7624,"stillingen":7625,"▁Bet":7626,"vene":7627,"sed":7628,"brigt":7629,"vekst":7630,"▁sørget":7631,"▁arbeidsgiver":7632,"▁Sigurd":7633,"▁SMS/MMS:":7634,"▁kommunene":7635,"▁Mac":7636,"▁Tyrkia":7637,"▁Priv":7638,"ferdsel":7639,"D\n":7640,"▁korrup":7641,"▁Hordaland":7642,"▁spare":7643,"▁41":7644,"x\n":7645,"▁stans":7646,"▁kjed":7647,"▁forand":7648,"ary":7649,"ctor":7650,"anda":7651,"▁www":7652,"-kv":7653,"ra.\n":7654,"▁Elite":7655,"▁Georg":7656,"ranger":7657,"▁aktivitet":7658,",6":7659,"▁lagene":7660,"▁gutter":7661,"▁kra":7662,"▁ledelse":7663,"klubben":7664,"▁uavhengig":7665,"▁Syn":7666,"▁parlam":7667,"stiske":7668,"irk":7669,"akke":7670,"▁kapas":7671,"ån":7672,"▁Totalt":7673,"▁fre":7674,"ell.\n":7675,"▁180":7676,"▁Pal":7677,"▁opp\n":7678,"▁tilby":7679,"▁kandid":7680,",4":7681,"▁usak":7682,"▁«A":7683,"ksen":7684,"skap,":7685,"9)":7686,"-land":7687,"▁årsaken":7688,"▁millioner\n":7689,"▁ble\n":7690,"▁rettet":7691,"▁klær":7692,"▁Bj":7693,"▁barn,":7694,"▁produsent":7695,"jente":7696,"@fvn.no\n":7697,"▁Fakta":7698,"rill":7699,"▁President":7700,"▁satse":7701,"nevnte":7702,".1°":7703,"▁generalsekretær":7704,"-led":7705,"edel":7706,"▁trus":7707,"za":7708,"▁politikerne":7709,"at,":7710,"forbud":7711,"▁jevn":7712,"▁serie":7713,"▁bereg":7714,"▁Trøndelag":7715,"▁dikt":7716,"▁normalt":7717,"bed":7718,"▁kob":7719,"▁Fædr":7720,"adrat":7721,"▁savnet":7722,"sfeng":7723,"▁vedtatt":7724,"sord":7725,"▁Allerede":7726,"▁gift":7727,"▁drapet":7728,"enning":7729,"▁brøt":7730,"▁språkbruk":7731,"selen":7732,"-ut":7733,"ten.\n":7734,"▁au":7735,"▁festival":7736,"is,":7737,"▁selskaper":7738,"▁regjeringens":7739,"▁~\n":7740,"▁henger":7741,"▁drar":7742,"▁Steinar":7743,"kap":7744,"ferdig":7745,"▁henven":7746,"▁delvis":7747,"▁Får":7748,"▁Åge":7749,"-Korea":7750,"▁institusjon":7751,"sre":7752,"dan":7753,"▁(18":7754,"▁sjelden":7755,"formen":7756,"▁kroner\n":7757,"nede":7758,"▁Aar":7759,"▁avstand":7760,"▁sammenlignet":7761,"▁Kh":7762,"▁trist":7763,"▁planlagt":7764,"▁nav":7765,"▁Marie":7766,"▁spreng":7767,"▁Fædrelandsvenn":7768,"▁grensen":7769,"-C":7770,"avtale":7771,"▁www.":7772,"alesund":7773,"▁Off":7774,"istene":7775,"▁skar":7776,"LI":7777,"▁rent":7778,"▁if":7779,"bakken":7780,"-sp":7781,"».":7782,"▁eig":7783,"▁lån":7784,"vik\n":7785,"▁åpenbart":7786,"kost":7787,"▁Ass":7788,"▁Prin":7789,"▁takk":7790,"▁You":7791,"▁30.":7792,"▁McC":7793,"▁sje":7794,"▁innb":7795,".0°":7796,"▁evaku":7797,"strand":7798,"▁forbe":7799,"▁personlig":7800,"oland":7801,"▁laste":7802,"▁settes":7803,"▁grupper":7804,"andin":7805,"▁sper":7806,"varer":7807,"▁demonstrasjon":7808,"▁mill":7809,"▁ære":7810,"▁Røde":7811,"▁bakken":7812,"▁homof":7813,"ommene":7814,"høy":7815,"▁UT":7816,"▁sing":7817,"ato":7818,".2°":7819,"svalg":7820,"▁kveld,":7821,"▁App":7822,"▁sider":7823,"▁Met":7824,"▁prøvde":7825,"▁spurt":7826,"▁individ":7827,"iljø":7828,"slått":7829,"je.\n":7830,"kk,":7831,"▁serien":7832,"ærlig":7833,"▁redaksjon":7834,"▁arbei":7835,"▁Nik":7836,"▁ankom":7837,"▁litteratur":7838,"▁Jag":7839,"▁World":7840,"bevis":7841,"▁«H":7842,"aske":7843,"▁prinsi":7844,"▁leie":7845,"▁Hav":7846,"▁strand":7847,"97":7848,"▁'":7849,"issen":7850,"berg\n":7851,"▁bekymring":7852,"bruks":7853,"▁sur":7854,"ier\n":7855,"▁tjeneste":7856,"ya":7857,"▁lands":7858,"▁sønnen":7859,"▁bytte":7860,"▁23.":7861,"▁Bal":7862,"▁åpning":7863,"▁EN":7864,"▁Flor":7865,"▁elektron":7866,"▁eksplosjon":7867,"in\n":7868,"skyld":7869,"▁=":7870,"▁usaklig":7871,"elly":7872,"dal,":7873,"▁Rød":7874,"▁Fikk":7875,"6°":7876,"▁beholde":7877,"ksomheten":7878,"▁administrerende":7879,"-lag":7880,"▁muslim":7881,"▁russisk":7882,"spar":7883,"▁Kjøp":7884,"▁typen":7885,"▁rødt":7886,"▁Sw":7887,"▁forsvarer":7888,"▁stri":7889,"▁Grunn":7890,"▁vere":7891,"euter":7892,"▁byen.\n":7893,"▁snu":7894,"▁May":7895,"▁refer":7896,"E:\n":7897,"▁ve":7898,"▁Jos":7899,"▁Sentral":7900,"▁Wal":7901,"gave":7902,"▁stru":7903,"▁tidligere.\n":7904,"prosjekt":7905,"▁jap":7906,"▁eliteseri":7907,"▁47":7908,"run":7909,"▁munn":7910,"▁Ingebrigt":7911,"ini":7912,"ones":7913,"▁religi":7914,"isky":7915,"▁opphavsrett":7916,"▁AV":7917,"hei":7918,"ower":7919,"▁PS":7920,"▁brannen":7921,"▁poeng.\n":7922,"▁jentene":7923,"▁24.":7924,"47":7925,"@fvn.no":7926,"▁olymp":7927,"▁rund":7928,"andør":7929,"leir":7930,"gere":7931,"etøy":7932,"g.\n":7933,"▁sykehuset":7934,"▁detaljer":7935,"port":7936,"▁kinesiske":7937,"▁spel":7938,"▁ansvarlig":7939,"øvere":7940,"▁tjener":7941,"▁S.":7942,"▁Stra":7943,"▁tilfeldig":7944,"▁ukjent":7945,"▁henholdsvis":7946,"▁Statsminister":7947,"▁28.":7948,"▁Sag":7949,"ell,":7950,"oke":7951,"▁katastrof":7952,"▁26.":7953,"▁grader":7954,"▁Des":7955,"▁motiv":7956,"▁Komm":7957,"uens":7958,"▁varsler":7959,"▁handel":7960,"smark":7961,"sting":7962,"▁tilfelle":7963,"▁skjønner":7964,"ril":7965,"▁delstat":7966,"ction":7967,"løse":7968,"▁advarer":7969,"▁satser":7970,"▁grunnlegg":7971,"▁palestinske":7972,"▁Tro":7973,"▁Rolf":7974,"skatt":7975,"brans":7976,"▁opprinnelig":7977,"▁tyn":7978,"▁partil":7979,"▁landslagssjef":7980,"▁forf":7981,"▁Årsaken":7982,"ryter":7983,"▁forlate":7984,"▁pasienter":7985,"andinav":7986,"▁papp":7987,"▁tiår":7988,"berg,":7989,"ektiv":7990,"ordin":7991,"▁4\n":7992,"edd":7993,"▁noens":7994,"▁son":7995,"▁produkt":7996,"▁overlev":7997,"▁Digitalsport":7998,"▁gru":7999,"aut":8000,"▁manglende":8001,"IST":8002,"▁65":8003,"▁straffe":8004,"▁pu":8005,"ert.\n":8006,"▁Redaktør":8007,"▁stilte":8008,"▁Norge.":8009,"▁miste":8010,"▁levert":8011,"iod":8012,"▁«F":8013,"64":8014,"▁initiativ":8015,"▁Død":8016,"▁Mette":8017,"alb":8018,"anmeldelser":8019,"▁Yo":8020,"entator":8021,"appar":8022,"▁Barn":8023,"▁Ven":8024,"▁landsm":8025,"▁Rundt":8026,"▁fisker":8027,"▁1\n":8028,"▁husker":8029,"▁Hill":8030,"ultimed":8031,"▁utført":8032,"▁aust":8033,"▁for,":8034,"▁avvik":8035,"ruk":8036,"spers":8037,"veit":8038,"omme":8039,"▁vari":8040,"▁Tali":8041,"▁tolv":8042,"▁visst":8043,"dret":8044,"ane.\n":8045,"▁sjåfør":8046,"▁Vad":8047,"▁TIPS":8048,"dalen":8049,"▁tida":8050,"▁Dommer":8051,"▁Vold":8052,"▁stj":8053,"▁Leif":8054,"tiker":8055,"▁Johnsen":8056,"▁over\n":8057,"▁TR":8058,"▁røde":8059,"las":8060,"▁Møre":8061,"▁betaler":8062,"mask":8063,"▁partiene":8064,"uddet":8065,"▁eksister":8066,"▁stod":8067,"▁25.":8068,"▁kunstner":8069,"▁tungt":8070,"ass\n":8071,"12":8072,"▁AaFK":8073,"▁dum":8074,"▁kommuner":8075,"/NTB":8076,"▁Aalesund":8077,"fulle":8078,"▁trukket":8079,"▁Ske":8080,"▁statsråd":8081,"▁bildene!\n":8082,"▁inst":8083,"▁bombe":8084,"▁mangel":8085,"▁dramatisk":8086,"▁beslag":8087,"▁Bær":8088,"▁hjemmesi":8089,"▁EUs":8090,"▁stolt":8091,"▁blei":8092,"▁ò":8093,"rede":8094,"leis":8095,"▁forster":8096,"▁grund":8097,"elser,":8098,"endom":8099,",7":8100,"maet":8101,"▁prote":8102,"▁Olymp":8103,"▁vil\n":8104,"sgod":8105,"▁Net":8106,"▁britisk":8107,"attet":8108,"▁ur":8109,"▁oppleve":8110,"▁sentr":8111,"▁Få":8112,"▁Luft":8113,"ra,":8114,"ID":8115,"▁kl.1":8116,"ko":8117,"▁Juli":8118,"-seier":8119,"sabeth":8120,"▁Sing":8121,"▁dårligere":8122,"▁hod":8123,"▁regnskap":8124,"▁varer":8125,"ytt":8126,"▁Tror":8127,"SAND":8128,"▁bestil":8129,"▁pil":8130,"▁Star":8131,"▁Spar":8132,"nes\n":8133,"oter":8134,"▁Sun":8135,"▁Nob":8136,"chen":8137,"stående":8138,"▁kronprin":8139,"nes.\n":8140,"dyr":8141,"LER":8142,"atrul":8143,"▁søknad":8144,"▁Vegard":8145,"▁Epost:":8146,"▁Belg":8147,"▁minner":8148,"▁konstater":8149,"▁befinner":8150,"illere":8151,"▁27.":8152,"▁offisielle":8153,"▁Champions":8154,"201":8155,"▁diplom":8156,"▁hode":8157,"▁savn":8158,"▁Spør":8159,"▁verre":8160,"▁hovedstaden":8161,"▁manager":8162,"▁rør":8163,"▁beskrevet":8164,"▁Christen":8165,"▁set":8166,"amo":8167,"▁250":8168,"▁1998":8169,"▁administrasjon":8170,"▁Vig":8171,"▁Eid":8172,"▁hjul":8173,"in.\n":8174,"kjenn":8175,"kampen":8176,"▁Blir":8177,"▁mak":8178,"▁historisk":8179,"▁vurdering":8180,"▁formelt":8181,"eltet":8182,"▁noensinne":8183,"aas":8184,"m,":8185,"▁Tall":8186,"▁provin":8187,"tidige":8188,"▁benytte":8189,"▁midtban":8190,"iter":8191,"▁(NTB):":8192,"▁varme":8193,"▁regjerings":8194,"▁1980":8195,"rel":8196,"ani":8197,"▁styreleder":8198,"▁Leagu":8199,"gruppen":8200,"▁planlag":8201,"▁Roar":8202,"▁frukt":8203,"ase":8204,"▁hull":8205,"▁gjøre.\n":8206,"krig":8207,"▁forkant":8208,"debatt":8209,"▁skjul":8210,"▁ramme":8211,"sal":8212,"▁sterkere":8213,"▁Antall":8214,"▁san":8215,"abri":8216,"▁Ott":8217,"▁Fremskritt":8218,"▁Gener":8219,"▁kontra":8220,"▁i,":8221,"▁behandlet":8222,"inal":8223,"▁kjemper":8224,"▁lagkamer":8225,"vanlig":8226,"▁nærings":8227,"kas":8228,"NU":8229,"▁menneskerettighet":8230,"▁erstatning":8231,"▁0-1":8232,"▁vidt":8233,"▁Kunst":8234,"▁knall":8235,"▁cirka":8236,"▁lagmannsrett":8237,"▁oppsl":8238,"ken,":8239,"messig":8240,"▁involver":8241,"kir":8242,"▁prosjektet":8243,"▁utøver":8244,"▁kalles":8245,"▁debut":8246,"▁igjen\n":8247,"▁forklare":8248,"▁antallet":8249,"arbeide":8250,"▁bli\n":8251,"▁forklaring":8252,"gu":8253,"▁10\n":8254,"▁29.":8255,"igur":8256,"ial":8257,"fug":8258,",8":8259,"elig.\n":8260,"▁Valen":8261,"▁Forsk":8262,"▁Vir":8263,"insp":8264,"anis":8265,"▁ør":8266,"▁Roger":8267,"-Q":8268,"loven":8269,"tet.\n":8270,"▁def":8271,"▁Vis":8272,"▁ub":8273,"▁(NTB)\n":8274,"▁Henning":8275,"ripe":8276,"▁andre,":8277,"▁Ask":8278,"▁kroppen":8279,"risen":8280,"ber.\n":8281,"▁vitner":8282,"▁underteg":8283,"▁risiko":8284,"utten":8285,"gner":8286,"▁finalen":8287,"▁ledere":8288,"▁rimelig":8289,"▁avdeling":8290,"▁VG\n":8291,"▁Tommy":8292,"▁Ku":8293,"▁Brun":8294,"▁ut\n":8295,"ster,":8296,"▁Dyr":8297,"▁FVTI":8298,"▁Fremskrittsparti":8299,"gjer":8300,"▁kjempet":8301,"▁*D":8302,"▁formid":8303,"illet":8304,"tekn":8305,"▁forsikring":8306,"▁Au":8307,"▁f.":8308,"▁statsbudsjett":8309,"slige":8310,"cast":8311,"▁kok":8312,"▁mulige":8313,"▁kutte":8314,"▁avde":8315,"▁dine":8316,"▁Tri":8317,"orene":8318,"ater.\n":8319,"▁Kri":8320,"psborg":8321,"rutter":8322,"▁enhver":8323,"ale\n":8324,"▁befolkningen":8325,");":8326,"▁Kari":8327,"NO":8328,"▁Hels":8329,"▁600":8330,"▁Hjel":8331,".4°":8332,"▁mykje":8333,"▁stasjon":8334,"▁52":8335,"▁Olje":8336,"▁redig":8337,"▁5\n":8338,"▁arranger":8339,"▁galt":8340,"ikk.\n":8341,"▁dron":8342,"▁bronse":8343,"▁varetektsfeng":8344,"arbeidere":8345,"kri":8346,"-6":8347,"▁Ever":8348,"▁hytte":8349,"▁Barne":8350,"▁Pedersen,":8351,"▁fortalt":8352,"▁øvrige":8353,"abel":8354,"▁lak":8355,"▁Los":8356,"utere":8357,"▁helikopter":8358,"▁Mjel":8359,"▁saman":8360,"▁Cla":8361,"8°":8362,"▁Lis":8363,"iken":8364,"▁are":8365,"▁etterforskning":8366,"▁forklarte":8367,"ell\n":8368,"▁engasjem":8369,"raftige":8370,"▁KRISTIANSAND":8371,"ge.\n":8372,"▁opprettet":8373,"illi":8374,"▁tilstand":8375,"▁Lunde":8376,"▁forny":8377,"▁møtes":8378,"▁anledning":8379,"▁beskyl":8380,"▁åpent":8381,"▁korre":8382,"gående":8383,"▁forlot":8384,"▁TDN":8385,"▁sal":8386,"▁Meld":8387,"▁arbeidsliv":8388,"▁gled":8389,"slutt":8390,"▁meter.\n":8391,"▁Reuters":8392,"▁Problem":8393,"▁disp":8394,"▁engang":8395,"riper":8396,"forening":8397,"pt":8398,"▁Elisabeth":8399,"jobb":8400,"▁color:":8401,"▁Id":8402,"sfri":8403,"▁annerledes":8404,"▁student":8405,"ennis":8406,"200":8407,"▁tilfred":8408,"budet":8409,"-pl":8410,"▁Rasmus":8411,"prisene":8412,"▁Video:":8413,"▁Osc":8414,"▁Adm.":8415,"▁legen":8416,"▁Gren":8417,"▁hår":8418,"▁skattel":8419,"VER":8420,"sse":8421,"dad":8422,"▁bandet":8423,"▁uka":8424,"▁Ah":8425,"øtte":8426,"mbol":8427,"ondet":8428,"▁Care":8429,"▁anmeld":8430,"ensmann":8431,"vik,":8432,"▁Hvil":8433,"▁gas":8434,"ttp":8435,"president":8436,"▁Don":8437,"▁bag":8438,"▁strategi":8439,"â":8440,"▁Sarpsborg":8441,"kjøring":8442,"▁nærmer":8443,"▁Europa.\n":8444,"jus":8445,"▁ansikt":8446,"▁Barcelona":8447,"▁overtid":8448,"▁vanskelige":8449,"rah":8450,"▁Bryne":8451,"▁beløp":8452,"▁Fjordan":8453,"▁Lev":8454,"ön":8455,"▁Håvard":8456,"▁kona":8457,"▁Kvær":8458,"▁hind":8459,"▁Utvik":8460,"▁Dar":8461,"HL":8462,"▁avly":8463,"▁avgang":8464,"merket":8465,"▁håpet":8466,"oth":8467,"ansatte":8468,"ransport":8469,"▁49":8470,"▁PC":8471,"asti":8472,"▁spesielle":8473,"▁forh":8474,"riften":8475,"▁fløy":8476,"▁solgte":8477,"▁les":8478,"▁elevene":8479,"anna":8480,"▁størst":8481,"▁Tekst:":8482,"atin":8483,"▁tekniske":8484,"ammen":8485,"▁korrupsjon":8486,"▁øre":8487,"øper":8488,"strid":8489,"▁Hushov":8490,"keland":8491,"▁Pan":8492,"▁King":8493,"▁prosentpoeng":8494,"DF":8495,"geir":8496,"▁fi":8497,"▁Finland":8498,"K\n":8499,"dress":8500,"▁186":8501,"k.\n":8502,"unne":8503,"▁Simon":8504,"▁2017":8505,"▁Ã¥":8506,"▁sannsynligvis":8507,"▁jenta":8508,"▁turen":8509,"ingspl":8510,"▁nøye":8511,"▁sluttet":8512,"-fly":8513,"▁Stig":8514,"▁mistenkt":8515,"▁NETT\n":8516,"▁byrå":8517,"k,":8518,"▁kontin":8519,"2F":8520,"▁verdenskrig":8521,"7°":8522,"▁Rem":8523,"▁opphavsrettslig":8524,"liga":8525,"letter":8526,"ova":8527,"fo":8528,"–1":8529,"▁2400":8530,"▁tilhør":8531,"-kon":8532,"▁(L":8533,"▁konklusjon":8534,"▁arab":8535,"▁tiden.\n":8536,"ivind":8537,"▁(I":8538,"ten,":8539,"hund":8540,"▁godt.\n":8541,"▁syr":8542,"▁siktede":8543,"▁stående":8544,"▁tider":8545,"▁ekspert":8546,"duksjon":8547,"▁partene":8548,"▁utan":8549,"▁går,":8550,"i-":8551,"▁Myh":8552,"T\n":8553,"▁kvadrat":8554,"▁undersøkelse":8555,"me\n":8556,"▁skriv":8557,"▁samarbeidet":8558,"▁fulle":8559,"way":8560,"▁lignende":8561,"▁plassen":8562,"g,":8563,"▁Aud":8564,"ssak":8565,"▁Syria":8566,"▁forventer":8567,"▁Strømsgod":8568,"▁Dy":8569,"famili":8570,"▁gig":8571,"▁ende":8572,"▁etterl":8573,"//":8574,"▁knu":8575,"produksjon":8576,"▁BILDER:":8577,"▁representant":8578,"spel":8579,"▁News":8580,"ønt":8581,"▁begynt":8582,"▁sambo":8583,"▁drikke":8584,"▁nok.\n":8585,"▁opplevde":8586,"▁dit":8587,"▁byens":8588,"ANG":8589,"ge,":8590,"▁Akershus":8591,"▁hørte":8592,"tilsynet":8593,"▁været":8594,"▁klubber":8595,"rafikken":8596,"▁Kap":8597,"tiver":8598,"itet.\n":8599,"alifiser":8600,"ine\n":8601,"▁demonst":8602,"egler":8603,"▁Parti":8604,"▁kunder":8605,"▁begrunn":8606,"▁opptil":8607,"level":8608,"▁spise":8609,",9":8610,"▁representerer":8611,"▁inspir":8612,"▁gøy":8613,"▁Do":8614,"▁Sku":8615,"▁1)":8616,"ien.\n":8617,"▁samling":8618,"▁godkjent":8619,"▁melde":8620,"SBN":8621,"▁Bernt":8622,"lant":8623,"ortere":8624,"▁trene":8625,"▁orienter":8626,"uft":8627,"▁sesong.\n":8628,"▁ment":8629,"2-":8630,"alisert":8631,"▁Hand":8632,"ally":8633,"▁server":8634,"zen":8635,"▁regne":8636,"afett":8637,"▁Mi":8638,"▁Sant":8639,"▁e-post:\n":8640,"▁Hånd":8641,"▁ag":8642,"▁Cam":8643,"paret":8644,"▁Dn":8645,"▁inn,":8646,"▁offensiv":8647,"smessig":8648,"▁samtlige":8649,"▁koste":8650,"▁Lilleham":8651,"ituasjonen":8652,"hev":8653,"21":8654,"oten":8655,"▁finn":8656,"▁Røkke":8657,"▁navn.\n":8658,"▁Smith":8659,"▁beredskap":8660,"▁Song":8661,"▁Dagsavisen":8662,"▁risikerer":8663,"▁drøyt":8664,"▁Jus":8665,"gren":8666,"slin":8667,"NES":8668,"forfatter":8669,"▁perfekt":8670,"▁nyheter\n":8671,"▁Fredrikstad":8672,"nere":8673,"▁snitt":8674,"umb":8675,"▁internasjonalt":8676,"▁desse":8677,"▁Svend":8678,"▁Ragn":8679,"▁Ster":8680,"ifte":8681,"RIK":8682,"▁boken":8683,"finn":8684,"▁Øde":8685,"▁ambassad":8686,"▁(i":8687,"\\\\":8688,"kun":8689,"▁representanter":8690,"rette":8691,"▁OSLO":8692,"▁medie":8693,"▁angiv":8694,"jakt":8695,"▁standard":8696,"handel":8697,"▁Sunnm":8698,"▁bøl":8699,"▁mai.\n":8700,"sin":8701,"issør":8702,"▁Ingrid":8703,"▁indre":8704,"▁virket":8705,"vidt":8706,"▁studer":8707,"▁sjekke":8708,"▁krang":8709,"ERG":8710,"%2F":8711,"stolen":8712,"▁harde":8713,"▁inntekter":8714,"zz":8715,"-\n":8716,"▁tilhører":8717,"▁ler":8718,"▁selv\n":8719,"FO":8720,"▁nestleder":8721,"rick":8722,"▁Skott":8723,"film":8724,"▁rart":8725,"struktur":8726,"▁stram":8727,"feldt":8728,"hn":8729,"▁finansier":8730,"verks":8731,"▁Wall":8732,"▁enighet":8733,"ier.\n":8734,",1":8735,"sering":8736,"▁>\n":8737,"-D":8738,"▁Slekt":8739,"▁3.\n":8740,"▁Hy":8741,"▁tallene":8742,"legare":8743,"▁andre\n":8744,"own":8745,"▁«I":8746,"ome":8747,"▁statlige":8748,"▁Ferg":8749,"▁stabil":8750,"▁svake":8751,"▁stilt":8752,"▁dessverre":8753,"▁Garder":8754,"eksjon":8755,"igheten":8756,"▁asylsø":8757,"▁prisene":8758,"kommer":8759,"keeper":8760,"▁personlige":8761,"▁Harry":8762,"avtalen":8763,"llup":8764,"▁stjer":8765,"▁3\n":8766,"rk":8767,"▁Lig":8768,"▁Arkiv":8769,"▁isol":8770,"seier":8771,"▁Forbruker":8772,"omen":8773,"sar":8774,"▁Rapp":8775,"sesong":8776,"▁rak":8777,"PA":8778,"▁artik":8779,"lass":8780,"plass.\n":8781,"▁Gret":8782,"ralen":8783,"▁fylle":8784,"LY":8785,"0)":8786,"▁vilje":8787,"▁Noreg":8788,"▁Marius":8789,"▁veier":8790,"kjenner":8791,"▁kommune.\n":8792,"▁lykkes":8793,"alli":8794,"▁ISBN":8795,"▁ordfør":8796,"▁Jakob":8797,"▁Live":8798,"▁handlet":8799,"bred":8800,"ams":8801,"▁dukket":8802,"▁mot\n":8803,"▁Terningkast:":8804,"▁kostet":8805,"asjon,":8806,"▁dagen.\n":8807,"▁måte.\n":8808,"▁OM":8809,"▁Høyres":8810,"▁dager.\n":8811,"øyer":8812,"ale.\n":8813,"▁ringte":8814,"kandidat":8815,"▁Alta":8816,"språk":8817,"ge\n":8818,"▁foreslår":8819,"ert\n":8820,"▁Seks":8821,"ppel":8822,"▁VIF":8823,"▁Riise":8824,"-åringen.\n":8825,"▁maskin":8826,"▁Beck":8827,"otter":8828,"▁2018":8829,"▁regnes":8830,"sten.\n":8831,"ført\n":8832,"▁Sveits":8833,"arane":8834,"▁forleng":8835,"▁meningsmå":8836,"▁REUTER":8837,"▁sentralban":8838,"api":8839,"▁ned,":8840,"▁Cont":8841,"▁mik":8842,"stres":8843,"▁foren":8844,"▁firm":8845,"▁elsker":8846,"▁oppfyl":8847,"▁Moss":8848,"-saken":8849,"▁scoring":8850,"▁Hilde":8851,"▁fraktet":8852,"sstil":8853,"▁grønn":8854,"vart":8855,"▁dropp":8856,"▁Fant":8857,"srepresentant":8858,"▁konserv":8859,"▁børs":8860,"▁digit":8861,"▁bodde":8862,"▁ekstremt":8863,"▁Villa":8864,"▁51":8865,"▁samtaler":8866,"▁etterly":8867,"▁sub":8868,"/1":8869,"ret.\n":8870,"▁liv.\n":8871,"▁Sjø":8872,"▁Aleks":8873,"▁raske":8874,"▁Pre":8875,"ring\n":8876,"but":8877,"://":8878,"▁rulle":8879,"▁Taliban":8880,"▁henne.\n":8881,"▁Jen":8882,"▁Tipp":8883,"▁fork":8884,"▁innbyggere":8885,"▁Tok":8886,"▁120":8887,"ikkerhet":8888,"årsak":8889,"▁grundig":8890,"▁dam":8891,"▁publi":8892,"▁Tsjekk":8893,"▁diskutere":8894,"▁Telemark":8895,"▁RO":8896,"stron":8897,"▁nåværende":8898,"-li":8899,"▁grense":8900,"-kont":8901,"isk\n":8902,"▁Halvorsen":8903,"▁vanligvis":8904,"bbel":8905,"fallet":8906,"▁økende":8907,"boks":8908,"▁776":8909,"▁sjans":8910,"▁lovet":8911,"▁Østfold":8912,"▁enorme":8913,"▁Ko":8914,"-sak":8915,"▁(d":8916,"is.\n":8917,"▁gransk":8918,"▁konsekvenser":8919,"▁Im":8920,"▁co":8921,"▁forretning":8922,"ugo":8923,"▁1,5":8924,"▁sving":8925,"▁andel":8926,"ty":8927,"▁J.":8928,"gaven":8929,"amma":8930,"engene":8931,"▁Ulf":8932,"ned":8933,"▁Lov":8934,"▁Count":8935,"air":8936,"▁han,":8937,"-fin":8938,"▁kop":8939,"▁Tj":8940,"▁«The":8941,"▁Gö":8942,"ater,":8943,"▁Lud":8944,"▁omfatter":8945,"▁handle":8946,"▁Rod":8947,"▁selskapets":8948,"▁Bagdad":8949,".3°":8950,"▁drevet":8951,"-AFP":8952,"▁mobiltelefon":8953,"▁Ban":8954,"aliteten":8955,"por":8956,"lis":8957,"▁landslaget":8958,"▁heil":8959,"▁kvinnene":8960,"hengige":8961,"▁kampen,":8962,"▁IN":8963,"ahr":8964,"▁kvelden":8965,"▁tank":8966,"▁Argen":8967,"▁sivil":8968,"▁forsøke":8969,"▁tilbake,":8970,"▁linje":8971,"▁kol":8972,"undersøk":8973,"▁Kristiansen":8974,"▁2012.\n":8975,"▁verden,":8976,"▁hjerte":8977,"▁design":8978,"▁kateg":8979,"handler":8980,"menter":8981,"bot":8982,"▁gård":8983,"▁Cel":8984,"▁rekrutter":8985,"▁Erling":8986,"bildet":8987,"go":8988,"▁kandidat":8989,"▁Dj":8990,"inerte":8991,"euters":8992,"▁ungdommer":8993,"▁South":8994,"▁også:":8995,"▁ender":8996,"▁effektiv":8997,"▁boka":8998,"▁dob":8999,"slett":9000,"▁Produ":9001,"sinn":9002,"▁AL":9003,"▁mobb":9004,"llustrasjon":9005,"▁pressemelding":9006,"▁storm":9007,"ument":9008,"▁Jim":9009,"kt.\n":9010,"une":9011,"▁boliger":9012,"▁utest":9013,"▁viten":9014,"▁fan":9015,"▁Sogndal":9016,"ømm":9017,"▁Natur":9018,"▁prosess":9019,"▁innført":9020,"essige":9021,"▁senter":9022,"▁oppfat":9023,"iserte":9024,"▁Pi":9025,"▁Miljø":9026,"▁ektem":9027,"▁forholdene":9028,"▁Kjer":9029,"▁Lat":9030,"▁Ac":9031,"▁Hem":9032,"▁forståelse":9033,"▁kreve":9034,"▁billett":9035,"▁tunnel":9036,"▁Bardu":9037,"▁rådgiver":9038,"▁lederen":9039,"▁avgjøre":9040,"▁Høyesterett":9041,"▁justi":9042,"os\n":9043,"▁ku":9044,"▁mod":9045,"▁vera":9046,"aksim":9047,"▁Foto:\n":9048,"▁Mün":9049,"▁Stud":9050,"▁Moham":9051,"▁Team":9052,"wn":9053,"aet":9054,"▁Fergus":9055,"▁anna":9056,"▁bland":9057,"▁dele":9058,"forsøk":9059,"gen\n":9060,"v.\n":9061,"▁53":9062,"▁Lokale":9063,"▁villig":9064,"▁Victor":9065,"▁reist":9066,"▁terrorangrep":9067,"▁distrikt":9068,"▁Hør":9069,"alen,":9070,"▁stakk":9071,"▁pasient":9072,"▁stanse":9073,"▁fylkeskommun":9074,"▁hov":9075,"▁Tha":9076,"oppgjør":9077,"delen":9078,"cke":9079,"familien":9080,"-komm":9081,"▁Kvinnen":9082,"▁Fram":9083,"▁let":9084,"▁log":9085,"oks":9086,"▁Matt":9087,"▁72":9088,"▁LSK":9089,"▁Råd":9090,"▁himmel":9091,"▁Hammerfest":9092,"▁Ansvar":9093,"▁mennene":9094,"▁sag":9095,"DEO":9096,"▁forvalt":9097,"▁republik":9098,"as,":9099,"▁Solli":9100,"▁programmet":9101,"▁velferd":9102,"▁utdan":9103,"▁Borg":9104,"▁DnB":9105,"-Qa":9106,"▁185":9107,"▁(R":9108,"▁Dagbladet\n":9109,"▁musli":9110,"▁tilbake\n":9111,"unget":9112,"▁Anna":9113,"▁str":9114,"78":9115,"▁tann":9116,"▁argumenter":9117,"ila":9118,"▁tilstre":9119,"▁utbet":9120,"▁symp":9121,"▁Fal":9122,"▁konkrete":9123,"▁alp":9124,"▁Ron":9125,"kadem":9126,"▁kin":9127,"▁årene,":9128,"▁glass":9129,"▁hyggelig":9130,"vald":9131,"▁1970":9132,"▁fylkes":9133,"▁utgitt":9134,"▁Klepp":9135,"▁negative":9136,"/G":9137,"▁utlig":9138,"▁sko":9139,"ues":9140,"espill":9141,"▁Cup":9142,"▁slitt":9143,"▁Dagsavis":9144,"▁Quart":9145,"▁formann":9146,"ure":9147,"▁Ove":9148,"▁forplikt":9149,"▁den,":9150,"en?\n":9151,"▁innflyt":9152,"sesjon":9153,"▁landbruk":9154,"▁Stavanger.\n":9155,"▁reklam":9156,"▁Internation":9157,"osof":9158,"▁sjok":9159,"▁levere":9160,"▁liter":9161,"▁Sølv":9162,"▁kontroller":9163,"radi":9164,"ism":9165,"▁Lav":9166,"▁flin":9167,"▁kvartfin":9168,"▁mottok":9169,"▁eller\n":9170,"ringe":9171,"▁dn":9172,"▁Lan":9173,"gre":9174,"▁Hard":9175,"anner":9176,"ago":9177,"▁Obam":9178,"▁selskapene":9179,"▁Kirken":9180,"▁Oscar":9181,"▁gjenstår":9182,"▁publisert:":9183,"▁É":9184,"▁pårør":9185,"▁veter":9186,"▁eldste":9187,"renge":9188,"▁jeg\n":9189,"▁elleve":9190,"▁narkotik":9191,"▁(U":9192,"▁liste":9193,"▁flyktning":9194,"▁båten":9195,"urs":9196,"-Mar":9197,"▁Stian":9198,"▁Fortsatt":9199,"▁Bilder":9200,"▁måter":9201,"hø":9202,"▁teknisk":9203,"▁H.":9204,"riks\n":9205,"rog":9206,"▁fla":9207,"▁òg":9208,"serne":9209,"▁reguler":9210,"TA":9211,"▁fattige":9212,"user":9213,"ring.\n":9214,"off\n":9215,"håp":9216,"▁Cali":9217,"▁Stord":9218,"▁øya":9219,"▁Beij":9220,"▁Orig":9221,"▁Sør-Trøndelag":9222,"olley":9223,"nummer":9224,"▁VIDEO":9225,"cher":9226,"▁nam":9227,"▁vurdert":9228,"serie":9229,"▁leg":9230,"▁hag":9231,"▁øverste":9232,"▁Vestfold":9233,"▁sammen,":9234,"▁lykke":9235,"▁E.":9236,"▁{":9237,"▁Ak":9238,"▁infl":9239,"▁utlend":9240,"ster\n":9241,"▁Heller":9242,"▁Bang":9243,"▁krefter":9244,"▁irak":9245,"▁assist":9246,"▁Jern":9247,"inær":9248,"▁Hum":9249,"▁rødgr":9250,"▁Sør-Afrik":9251,"esenter":9252,"▁700":9253,"rød":9254,"stan":9255,"▁tribun":9256,"▁sok":9257,"ling.\n":9258,"part":9259,"▁bryter":9260,"▁kamp.\n":9261,"ert,":9262,"▁innom":9263,"▁bomb":9264,"yt":9265,"▁bevil":9266,"▁september.\n":9267,"unnelen":9268,"▁hend":9269,"RØ":9270,"sdagens":9271,"▁ambulanse":9272,"▁Cec":9273,"▁Bergen.\n":9274,"▁54":9275,"VE":9276,"▁dekke":9277,"▁Gol":9278,"▁bygges":9279,"fotball":9280,"▁mand":9281,"▁Fur":9282,"▁univers":9283,"▁Sov":9284,"-re":9285,"▁1500":9286,"▁smitt":9287,"sesse":9288,"▁integ":9289,"▁over,":9290,"lapp":9291,"▁Carew":9292,"▁Bos":9293,"▁sjokk":9294,"cy":9295,"▁ivaret":9296,"▁ER":9297,"jen.\n":9298,"▁Band":9299,"▁vid":9300,"▁enorm":9301,"z,":9302,"inger,":9303,"▁organisasjonen":9304,"▁56":9305,"▁Mont":9306,"▁forberedt":9307,"riske":9308,"fir":9309,"▁ruti":9310,"▁Familien":9311,"behandling":9312,"▁riv":9313,"▁hendelsen":9314,"▁hær":9315,"▁baby":9316,"▁gitar":9317,"▁studenter":9318,"burn":9319,"▁varm":9320,"itteratur":9321,"▁skritt":9322,"limt":9323,"▁2011.\n":9324,"øyde":9325,"stav":9326,"▁spons":9327,"▁fro":9328,"usen":9329,"▁kaste":9330,"▁Rå":9331,"bytte":9332,"stikk":9333,"▁inn\n":9334,"▁Sverige.\n":9335,"ulere":9336,"▁tilbyr":9337,"▁Fili":9338,"uls":9339,"▁Marian":9340,"▁Advokat":9341,"▁Even":9342,"▁overtok":9343,"▁havn":9344,"ura":9345,"aff":9346,"▁passasjerer":9347,"▁lede":9348,"▁Nyheter\n":9349,"▁avgift":9350,"anere":9351,"▁Muse":9352,"scen":9353,"ales":9354,"▁bryte":9355,"▁kilder":9356,"▁trekk":9357,"▁Norway":9358,"▁beslutning":9359,"▁Kåre":9360,"▁foregår":9361,"▁deltar":9362,"▁skiller":9363,"kkede":9364,"▁fersk":9365,"▁Mic":9366,"landet,":9367,"press":9368,"▁innføre":9369,"▁forsin":9370,"▁informer":9371,"▁Abd":9372,"akon":9373,"orteføl":9374,"al;":9375,"▁Vei":9376,"ligheten":9377,"▁tallet":9378,"▁medvir":9379,"▁Holly":9380,"▁«K":9381,"talemyndighet":9382,"▁Carlsen":9383,"▁hverandre.\n":9384,"▁JO":9385,"▁ambisjon":9386,"▁smiler":9387,"ae":9388,"cia":9389,"beveg":9390,"▁produkter":9391,"▁mulig.\n":9392,"▁<":9393,"viste":9394,"▁pan":9395,"▁hadde\n":9396,"▁oppfordrer":9397,"▁observ":9398,"▁1997":9399,"rettet":9400,"▁sve":9401,"▁Wood":9402,"▁innlegget":9403,"▁arbeidsplasser":9404,"▁m.\n":9405,"▁varier":9406,"▁låt":9407,"▁pluss":9408,"▁bedre.\n":9409,"san":9410,"▁Iversen":9411,"▁Lokalt":9412,"as.\n":9413,"▁albumet":9414,"▁3-1":9415,"▁restaurant":9416,"SP":9417,"▁rollen":9418,"▁vestlige":9419,"▁sommer.\n":9420,"▁Bolig":9421,"sili":9422,"▁com":9423,"▁testet":9424,"ppdatert":9425,"▁felle":9426,"en:\n":9427,"▁nødvendigvis":9428,"▁juni.\n":9429,"▁hvilket":9430,"▁sentrum.\n":9431,"▁sand":9432,"▁vedlike":9433,"DAL":9434,"▁dokument":9435,"▁Ros":9436,"▁kjøkken":9437,"▁havne":9438,"▁Solheim":9439,"▁politidistrikt.\n":9440,".5°":9441,"bær":9442,"▁Rec":9443,"▁pressen":9444,"▁11px":9445,"▁blogg":9446,"▁kraftige":9447,"srapp":9448,"-for":9449,"bi":9450,"z\n":9451,"▁«G":9452,"▁enkle":9453,"▁Ful":9454,"▁margin":9455,"gje":9456,"▁vondt":9457,"▁minim":9458,"▁«L":9459,"▁leverte":9460,"▁benyttet":9461,"amerik":9462,"▁moren":9463,"▁Kosov":9464,"▁kone":9465,"▁nedbør":9466,"▁sunn":9467,"▁stopper":9468,"▁Stør":9469,"▁institutt":9470,"▁livet.\n":9471,"▁Pettersen":9472,"▁Arial;":9473,".9°":9474,"▁mer.\n":9475,"▁31.":9476,"▁prosent\n":9477,"▁tabell":9478,"ettet":9479,"▁Energi\n":9480,"▁Brit":9481,"ÅR":9482,"▁Jord":9483,"▁generasjon":9484,"urin":9485,"▁Beg":9486,"oph":9487,"▁landskamp":9488,"▁DAG":9489,"▁løn":9490,"ets\n":9491,"▁nordmann":9492,"tikken":9493,"▁bidratt":9494,"▁datteren":9495,"▁Polen":9496,"▁spørre":9497,"▁92":9498,"▁Disk":9499,"▁lur":9500,"▁Senere":9501,"onnement":9502,"▁University":9503,"▁beting":9504,"▁vesentlig":9505,"▁Gust":9506,"▁underhold":9507,"▁Rock":9508,"▁penger.\n":9509,"▁90\n":9510,"▁Thailand":9511,"▁listen":9512,"stendighet":9513,"▁kjøretøy":9514,"trykk":9515,"▁MAR":9516,"▁85":9517,"▁blir\n":9518,"▁Ken":9519,"▁Ullevål":9520,"que":9521,"▁gjenstand":9522,"atikk":9523,"æl":9524,"▁tyrk":9525,"▁grunnen":9526,"innet":9527,"▁Dis":9528,"▁trykk":9529,"▁Johaug":9530,"bon":9531,"▁Fab":9532,"▁Tekn":9533,"▁teknolog":9534,"▁lokalt":9535,"▁trå":9536,"▁Hor":9537,"▁beskytte":9538,"▁Steffen":9539,"▁religion":9540,"▁innk":9541,"▁3-0":9542,"▁status":9543,":11":9544,"▁jød":9545,"vendig":9546,"▁km/":9547,"▁spesiell":9548,"alis":9549,"▁Shar":9550,"▁sentralt":9551,"inger\n":9552,"▁Ö":9553,"83":9554,"▁fødsel":9555,"sministeren":9556,"sson,":9557,"▁BR":9558,"▁NT":9559,"▁stykke":9560,"▁såpass":9561,"▁Mari":9562,"ksjoner":9563,"ningen\n":9564,"▁nok,":9565,"▁Mur":9566,"▁fremste":9567,"▁dans":9568,"▁ANB\n":9569,"▁lensmann":9570,"ling\n":9571,"▁Rep":9572,"elat":9573,"▁spli":9574,"ett.\n":9575,"▁heile":9576,"førsel":9577,"-Oppdatert":9578,"taket":9579,"▁prestasjon":9580,"▁Newcast":9581,"▁same":9582,"▁Barcelon":9583,"▁lun":9584,"▁berør":9585,"▁Kort":9586,"▁Beste":9587,"▁skøy":9588,"iteter":9589,"son,":9590,"RIV":9591,"▁snar":9592,"omgang":9593,"▁10.000":9594,"scorer":9595,"▁forfer":9596,"sli":9597,"▁slutter":9598,"▁Kas":9599,"▁TH":9600,"▁skep":9601,"▁avslut":9602,"▁Bob":9603,"SÅ":9604,"▁vi\n":9605,"▁scenen":9606,"▁klassisk":9607,"▁august.\n":9608,"legen":9609,"øy.\n":9610,"▁filmer":9611,"▁renten":9612,"alistisk":9613,"▁spes":9614,"▁arbeidst":9615,"▁statistikk":9616,"▁Kvinn":9617,"redit":9618,"▁tidligere,":9619,"▁sesongen,":9620,"sstraff":9621,"os,":9622,"▁Poeng":9623,"▁klubbens":9624,"melige":9625,"▁NHO":9626,"▁Oil":9627,"▁motsetning":9628,"▁Len":9629,"møte":9630,".2004":9631,"▁seil":9632,"▁mye,":9633,"-19":9634,"legget":9635,"demokra":9636,"▁Dam":9637,"▁obser":9638,"▁Litteratur":9639,"slav":9640,"▁sakene":9641,"slå":9642,"▁lørdagens":9643,"▁ferske":9644,"▁etterspør":9645,"▁Syl":9646,"▁være\n":9647,"▁byttet":9648,"▁brå":9649,"▁Camp":9650,"▁oppl":9651,"vekt":9652,"▁anty":9653,"▁problemet":9654,"▁Frykter":9655,"▁forelig":9656,"▁skrift":9657,"▁forsiktig":9658,"ministrerende":9659,"▁Gir":9660,"▁uklart":9661,"▁yngre":9662,"heten.\n":9663,"▁BM":9664,"▁Mellom":9665,"▁væp":9666,"▁inngått":9667,"▁middag":9668,"▁MMS":9669,"▁sle":9670,"været":9671,"▁Bloggen":9672,"▁Bård":9673,"-fil":9674,"▁tøft":9675,"stud":9676,"▁Forsvaret":9677,"▁meiner":9678,"k\n":9679,"▁Tittel":9680,"▁Hos":9681,"alå":9682,"▁Ze":9683,"erne.\n":9684,"▁tår":9685,"▁has":9686,"▁sendes":9687,"▁Ur":9688,"setting":9689,"▁straffes":9690,"▁sittende":9691,"▁slutte":9692,"▁ressurser":9693,"▁skisky":9694,"ensasjon":9695,"▁EG":9696,"UG":9697,"▁Rang":9698,"▁Kanal":9699,"odi":9700,"▁forbund":9701,"▁bin":9702,"indeksen":9703,"oppen":9704,"▁seng":9705,"▁passe":9706,"organisasjonen":9707,"▁Ny\n":9708,"▁sukker":9709,"▁Gruppen":9710,"problem":9711,"▁Scanpix":9712,"fan":9713,"hall":9714,"▁holdes":9715,"▁Skjerv":9716,"▁tittelen":9717,"▁spred":9718,"▁Nat":9719,"▁kollega":9720,"▁forklart":9721,"▁dekk":9722,"▁Lie":9723,"imb":9724,"▁elem":9725,"foreningen":9726,"▁Bayern":9727,"sber":9728,"ninger\n":9729,"▁Snø":9730,"▁tradisjonelle":9731,"▁2010.\n":9732,"▁EØ":9733,"▁tyng":9734,"▁bad":9735,"▁domstol":9736,"▁Robin":9737,"▁Sir":9738,"▁Brand":9739,"▁4.\n":9740,"▁Bjørne":9741,"brand":9742,"▁fore":9743,"▁påske":9744,"ddet":9745,"▁truer":9746,"▁oppgave":9747,"▁underveis":9748,"▁kjerne":9749,"virksomhet":9750,"ekker":9751,"▁under\n":9752,"▁sum":9753,"▁flyktninger":9754,"▁avtal":9755,"▁pas":9756,"ystem":9757,"markedet":9758,"▁lete":9759,"▁etterfor":9760,"▁Tur":9761,"▁NORD":9762,"biler":9763,".98":9764,"▁korte":9765,"▁Etternavn":9766,"▁områdene":9767,"▁OGSÅ":9768,"▁oppgitt":9769,"eback":9770,"▁kurs":9771,"▁igjennom":9772,"▁gjestene":9773,"▁vegne":9774,"▁av:":9775,"▁vannet":9776,"liggende":9777,"▁utry":9778,"▁Person":9779,"het\n":9780,"▁bebo":9781,"8.":9782,"▁kommersi":9783,"▁Spiller":9784,"moen":9785,"▁Navn":9786,"▁100.000":9787,"▁nederland":9788,"▁(7":9789,"▁Line":9790,"ingar":9791,"svik":9792,"rense":9793,"▁Uansett":9794,"▁kid":9795,"▁2008\n":9796,"▁Press":9797,"oom":9798,"▁symbol":9799,"▁plast":9800,"6.":9801,"▁laget.\n":9802,"▁søndagens":9803,"▁typer":9804,"▁kommunest":9805,"▁skjeb":9806,"▁nettet.\n":9807,"▁vaks":9808,"dep":9809,"▁vill":9810,"▁Ulleva":9811,"akten":9812,"▁(n":9813,"▁fik":9814,"leks":9815,"aksjonen":9816,"▁lest":9817,"derte":9818,"sdepartementet":9819,"▁Wig":9820,"▁falle":9821,"▁Fornavn":9822,"▁202":9823,"▁ganger.\n":9824,"▁gjøre,":9825,"ikere":9826,"▁året,":9827,"▁nettverk":9828,"ger.\n":9829,"▁Eriksen":9830,"▁Od":9831,"▁Lise":9832,"melt":9833,"sson.\n":9834,"▁prim":9835,"elling":9836,"▁Debatt":9837,"JØR":9838,"vensjon":9839,"▁tilknyt":9840,"▁Californ":9841,"▁kriminelle":9842,"holdet":9843,"lån":9844,"▁utstilling":9845,"▁Sverre":9846,"▁India":9847,"▁Resultatet":9848,"▁eventuelle":9849,"▁fjernet":9850,"▁eventuell":9851,"▁klubben.\n":9852,"ely":9853,"▁(O":9854,"▁avgjort":9855,"-Reuters":9856,"▁valut":9857,"▁sykep":9858,"▁jurid":9859,"avisen.\n":9860,"smeld":9861,"▁Internasjon":9862,"IA":9863,"▁påvirke":9864,"▁utbre":9865,"▁hurtig":9866,"tina":9867,"▁Lyng":9868,"▁Canada":9869,"▁gule":9870,"▁opptre":9871,"w.":9872,"asjen":9873,"▁Heidi":9874,"▁lurt":9875,"▁Guar":9876,"▁Gabri":9877,"hvert":9878,"▁teknologi":9879,"ér":9880,"▁leir":9881,"ste,":9882,"▁liggende":9883,"sperio":9884,"repet":9885,"▁187":9886,"▁(ANB-NTB):\n":9887,"-tallet,":9888,"▁gutten":9889,"utslipp":9890,"▁etter.\n":9891,"-Agder":9892,"▁nådde":9893,"▁Ødegaard":9894,"setningen":9895,"▁Syd":9896,"▁Cecili":9897,"natt":9898,"▁Theres":9899,"aver":9900,"▁Chris":9901,"▁Sadd":9902,"-kan":9903,"▁arrangert":9904,"▁loven":9905,"▁låne":9906,"▁Horn":9907,"kten":9908,"▁har,":9909,"mun":9910,"nam":9911,"▁Bel":9912,"▁styrem":9913,"▁luks":9914,"▁16:4":9915,"spital":9916,"▁Lilles":9917,"ikke":9918,"▁nyt":9919,"▁juli.\n":9920,"▁meldinger":9921,"▁konsernsjef":9922,"▁Amer":9923,"▁Trondheim.\n":9924,"▁arbeidsled":9925,"▁videre,":9926,"ret\n":9927,"▁Bjarne":9928,"ditt":9929,"▁konkurransen":9930,"▁pressemelding.\n":9931,"▁hjør":9932,"tatt":9933,"▁Ren":9934,"▁barnehage":9935,"▁AP\n":9936,"▁sjå":9937,"lan":9938,"▁tide":9939,"▁last":9940,"▁irri":9941,"latelse":9942,"▁plass,":9943,"hab":9944,"▁fotballspiller":9945,"▁kollisjon":9946,"▁Baby":9947,"▁)":9948,"▁belast":9949,"▁total":9950,"ket.\n":9951,"sstyr":9952,"▁radio":9953,"▁arrangement":9954,"▁imponert":9955,"▁Ruud":9956,"▁utbygg":9957,"betjent":9958,"▁fjorårets":9959,"▁oppdater":9960,"▁jury":9961,"oz":9962,"våpen":9963,"UM":9964,"▁Hamas":9965,"sprogram":9966,"ktorat":9967,"▁Times":9968,"▁Tem":9969,"entlige":9970,"▁Asker":9971,"▁noe,":9972,"▁promille":9973,"9.":9974,"▁orig":9975,"ELL":9976,"▁«N":9977,"▁Lau":9978,"▁show":9979,"▁evne":9980,"5.":9981,"▁historiske":9982,"hen":9983,"▁tunge":9984,"▁bildene\n":9985,"TT":9986,"▁anke":9987,"fessor":9988,"▁Jacks":9989,"▁frist":9990,"▁Vadsø":9991,"▁kontant":9992,"▁fyr\n":9993,"▁måneder.\n":9994,"ulert":9995,"▁Emil":9996,"▁fornær":9997,"nes,":9998,"▁agg":9999,"▁omtalt":10000,"▁–\n":10001,"▁januar.\n":10002,"skon":10003,"den.\n":10004,"▁Kai":10005,"▁vitenskap":10006,"enez":10007,"▁Spesielt":10008,"▁lette":10009,"urens":10010,"▁Liby":10011,"▁undersøkelser":10012,"produsent":10013,"▁Svar":10014,"▁liber":10015,"▁suver":10016,"prom":10017,"▁Saudi":10018,"tillit":10019,"▁jent":10020,"▁2,5":10021,"▁mye.\n":10022,"▁ledende":10023,"2.":10024,"SS":10025,"▁human":10026,"▁16:5":10027,"▁park":10028,"▁Akkurat":10029,"skilt":10030,"EK":10031,"▁gjekk":10032,"▁dyk":10033,"▁punkter":10034,"▁populær":10035,"▁trengte":10036,"▁pin":10037,"▁skoler":10038,"▁forsvare":10039,"ekspert":10040,"▁2008.\n":10041,"sløs":10042,"▁CNN":10043,"▁hoppet":10044,"▁godt,":10045,"▁Møl":10046,"merke":10047,"now":10048,"ingens":10049,"▁Bul":10050,"delsen":10051,"▁Ansvarlig":10052,"▁es":10053,"▁journalister":10054,"ello":10055,"▁konstru":10056,"▁FIF":10057,"▁kva":10058,"▁utdann":10059,"▁politiet,":10060,"▁uttalt":10061,"▁tilst":10062,"▁konsul":10063,"0)\n":10064,"▁Serb":10065,"▁årlig":10066,"▁avisen.\n":10067,"▁kommune\n":10068,"medalje":10069,"▁Eivind":10070,"forsamling":10071,"▁57":10072,"helm":10073,"▁besluttet":10074,"▁kvalit":10075,"▁Drill":10076,"▁ødelagt":10077,"▁billigere":10078,"▁Kors":10079,"▁B.":10080,"▁match":10081,":31\n":10082,"▁etablere":10083,"▁tilstrekkelig":10084,"▁føles":10085,"/\n":10086,"mos":10087,"ernes":10088,"▁retur":10089,"▁tenår":10090,"ctic":10091,"utd":10092,"▁Jean":10093,"▁Arm":10094,"edes":10095,"▁slutt.\n":10096,"C\n":10097,"leie":10098,"spektiv":10099,"▁sjøl":10100,"▁innrømmet":10101,"▁She":10102,"▁jobb.\n":10103,"▁Plan":10104,"▁Arendal":10105,"▁poeng\n":10106,"▁resultatene":10107,"▁klag":10108,"▁Hollywood":10109,"irasjon":10110,"▁Bus":10111,"▁enklere":10112,"ttp://":10113,"▁fritid":10114,"▁Russ":10115,"▁2005\n":10116,"▁uken.\n":10117,"time":10118,"dressa":10119,"▁rock":10120,"▁«P":10121,"▁morgen,":10122,"▁eventyr":10123,"▁Små":10124,"bom":10125,"iven":10126,"▁sjette":10127,"▁IT":10128,"avgift":10129,"▁2009.\n":10130,"elig,":10131,"▁kapital":10132,"kende":10133,"▁banken":10134,"▁tildelt":10135,"▁(t.v":10136,"▁anbefaler":10137,"▁Kal":10138,"▁Ett":10139,"▁forhandlingene":10140,"▁5.\n":10141,"▁taper":10142,"▁fortvil":10143,"▁kampan":10144,"tif":10145,"▁tip":10146,"▁Barack":10147,"▁Klokken":10148,"▁Stå":10149,"▁konfer":10150,"våg":10151,"redaktør:":10152,"▁Guardi":10153,"▁aktive":10154,".NO":10155,"▁Hanne":10156,"▁Milan":10157,"▁statsministeren":10158,"kka":10159,"▁Landslag":10160,"▁uttalelse":10161,"▁omkomm":10162,"▁Rio":10163,"▁ukene":10164,"3.":10165,"▁Bi":10166,"▁avisa":10167,"ranter":10168,"ily":10169,"▁2013.\n":10170,"▁Motor":10171,"met.\n":10172,"▁Håndball":10173,"▁Lillesand":10174,"itet,":10175,"▁stedet,":10176,"skerne":10177,"▁vedtok":10178,"spørsmål":10179,"▁mørke":10180,"bor":10181,"▁Stortingets":10182,"▁olympiske":10183,"ENT":10184,"vang":10185,":01\n":10186,"▁etterforskningen":10187,"▁kontrakten":10188,"▁Bygg":10189,"-AP":10190,"▁lande":10191,"▁partiets":10192,"▁Rö":10193,"▁skru":10194,"▁15:5":10195,"undes":10196,"▁sekund":10197,"▁høg":10198,"▁Mosk":10199,"▁Foreløpig":10200,"ilitet":10201,"▁avdel":10202,"▁kalle":10203,"jemp":10204,"▁instru":10205,"▁Jacobsen":10206,"kt,":10207,"ene:\n":10208,"▁Uly":10209,"▁prosessen":10210,"▁saken!\n":10211,"▁16:1":10212,"▁betrakt":10213,"▁bryllup":10214,"likket":10215,"▁NSB":10216,"pers":10217,"▁64":10218,"▁nødvendige":10219,"▁rede":10220,"union":10221,"▁senior":10222,"▁Dal":10223,"▁2014.\n":10224,"EN:\n":10225,"▁data":10226,"ografi":10227,"▁Rein":10228,"ken\n":10229,"▁straffer":10230,"▁karriere":10231,"▁avh":10232,"▁tiltale":10233,"ommen.\n":10234,"www.":10235,":00:":10236,"▁taler":10237,"▁midlertidig":10238,"▁do":10239,"▁økonomien":10240,"neser":10241,"▁Bent":10242,"▁Lof":10243,"▁oppfølg":10244,"▁fredag,":10245,"▁hil":10246,"▁faste":10247,"▁mars.\n":10248,"sperson":10249,"ærende":10250,"opol":10251,"▁ish":10252,"▁stemte":10253,"▁kundene":10254,"▁jordskjel":10255,"▁sin.\n":10256,"sreg":10257,"▁Felles":10258,"serier\n":10259,"▁trygge":10260,"skap\n":10261,"▁likestilling":10262,"ørene":10263,"▁partier":10264,"kultur":10265,"▁Videre":10266,"▁W.":10267,"rover":10268,"89":10269,"▁golf":10270,"any":10271,"▁høres":10272,"tra":10273,"sstoff\n":10274,"▁området,":10275,"▁Australia":10276,"▁13:5":10277,"grens":10278,"bygd":10279,"▁attrak":10280,"-man":10281,"▁havner":10282,"▁Europa,":10283,"ober.\n":10284,"▁cen":10285,"▁tilsynelat":10286,"▁Hjemme":10287,"▁14:4":10288,"▁merker":10289,"attform":10290,"▁Vet":10291,"▁Plass\n":10292,"▁Bakgrunnsstoff\n":10293,"▁13:4":10294,"åsen":10295,"vurder":10296,"enfor":10297,"▁Mess":10298,"▁score":10299,"▁leveres":10300,"▁«V":10301,"▁ube":10302,"▁Røn":10303,"ering":10304,"▁Pass":10305,"▁17:2":10306,"▁velly":10307,"▁2004\n":10308,"▁*S":10309,"▁Ingebrigtsen":10310,"▁Start\n":10311,"▁Hoff":10312,"hy":10313,"ødd":10314,"▁latter":10315,"▁besøkte":10316,"▁dep":10317,"▁det?\n":10318,"▁Blackburn":10319,"1.":10320,"▁mengder":10321,"▁Eric":10322,"▁motsatt":10323,"▁rammer":10324,"bøl":10325,"ollap":10326,"-tid":10327,"kehuset":10328,"strener":10329,"▁innvandring":10330,"▁Mjelde":10331,"▁fange":10332,"▁side.\n":10333,"øy,":10334,"▁Mourin":10335,"▁MEST":10336,"▁reser":10337,"▁drø":10338,"▁UEF":10339,"isk.\n":10340,"▁vegg":10341,"▁Mak":10342,"saker":10343,"▁formiddag.\n":10344,"▁Liban":10345,"lingene":10346,"EC":10347,"AP":10348,"▁2007.\n":10349,"▁Vinter-OL":10350,"ografi\n":10351,"▁til.":10352,"iske\n":10353,"▁aksje":10354,"▁gårsdagens":10355,"stemning":10356,"oer":10357,"▁påkjør":10358,"▁France":10359,"▁salget":10360,"ider":10361,"▁Jack":10362,"▁Rand":10363,"hus\n":10364,"▁spissen":10365,"▁rø":10366,"▁løfte":10367,"▁reag":10368,"▁trygt":10369,"endring":10370,"▁Været\n":10371,"spor":10372,"styre":10373,"▁Has":10374,"bilen":10375,"▁uakt":10376,"▁oppsikt":10377,"▁Trine":10378,"▁Cru":10379,"▁revolusjon":10380,"▁priser":10381,"▁Valg":10382,"▁x":10383,"▁uheldig":10384,"▁Oslo-":10385,"▁Friidrett":10386,"▁terreng":10387,"▁bili":10388,"▁noe.\n":10389,"▁turn":10390,"▁Soc":10391,"jeller":10392,"▁Sverige,":10393,"▁Org":10394,"▁kåret":10395,"▁hjem.\n":10396,"▁truffet":10397,"▁2005.\n":10398,"▁Kra":10399,"▁1.1":10400,"col":10401,"▁rolig":10402,"men,":10403,"▁diesel":10404,"▁Max":10405,"ni":10406,"car":10407,"▁lave":10408,"▁LEST":10409,"▁Salt":10410,"▁Rub":10411,"ale,":10412,"▁syntes":10413,"blå":10414,"▁Torbjørn":10415,"▁ille":10416,"▁tilli":10417,"▁lørdag,":10418,"▁milj":10419,"▁alle\n":10420,"▁rakett":10421,"problemer":10422,"▁Lokal":10423,"aterte":10424,"▁oppgaver":10425,"▁Orkl":10426,"▁Går":10427,"yen":10428,"%\n":10429,"isk,":10430,"▁feil.\n":10431,"▁Tromsø.\n":10432,"▁10:5":10433,"▁døds":10434,"▁overbev":10435,"▁stikk":10436,"▁10:2":10437,"▁Våg":10438,"▁ordet":10439,"▁not":10440,"▁2007\n":10441,"▁PST":10442,"▁16:2":10443,"▁pr":10444,"▁problemene":10445,"▁kravet":10446,"▁ekskl":10447,"sentralen":10448,"senteret":10449,"▁trent":10450,"▁(G":10451,".2008\n":10452,"▁Kvinne":10453,"sesongen":10454,"nevnt":10455,"derne":10456,"▁finansk":10457,"▁skjønn":10458,"▁negativ":10459,"▁krevende":10460,"mis":10461,"▁forbruker":10462,"▁fond":10463,"▁Mør":10464,"▁Rev":10465,"▁til:\n":10466,"▁prins":10467,"▁flotte":10468,"oul":10469,"lest":10470,"▁serier":10471,"▁Everton":10472,"▁14:5":10473,"▁Part":10474,"▁bestemme":10475,"▁stiger":10476,"assen,":10477,"▁butikker":10478,"avtal":10479,"▁dødsfall":10480,"▁M.":10481,"møtet":10482,"▁Dre":10483,"▁innholdet":10484,"▁innled":10485,"▁Filmen":10486,"▁Hil":10487,"▁rettssak":10488,"▁rektor":10489,";\n":10490,"tika":10491,"▁skyldig":10492,"▁omfang":10493,"▁1960":10494,"▁Nesten":10495,"ynt":10496,"field":10497,"▁maler":10498,"ampen":10499,"▁departementet":10500,"sun":10501,"▁dypt":10502,"▁(Ap)":10503,"æringen":10504,"tom":10505,"▁Gil":10506,"atn":10507,"▁Blair":10508,"▁krigs":10509,"▁synd":10510,"▁Eik":10511,"▁sammenlagt":10512,"▁KL":10513,"▁Munch":10514,"▁oppgang":10515,"▁Pors":10516,"ier,":10517,"7.":10518,"▁intervjuet":10519,"ullet":10520,"asjonene":10521,"▁184":10522,"▁Atle":10523,"▁befolkning":10524,"▁mennesker.\n":10525,"a,\n":10526,"▁jazz":10527,"splan":10528,"▁fine":10529,"▁direktør:\n":10530,"▁perm":10531,"▁Tak":10532,"▁utlandet":10533,"▁helgen.\n":10534,"yndighetene":10535,"▁skand":10536,"▁sittet":10537,"▁Sto":10538,"▁Erlend":10539,"▁demonstr":10540,"okrat":10541,"▁stafett":10542,"▁fortjent":10543,"▁halvår":10544,"etid":10545,"steder":10546,"snivå":10547,"▁utlø":10548,"rykket":10549,"uterte":10550,"▁BT":10551,"ipp":10552,"kken,":10553,"▁produsert":10554,"▁hovud":10555,"▁iverks":10556,"▁Ner":10557,"▁beteg":10558,"ther":10559,"▁publisert.\n":10560,"beg":10561,"▁Aftenpostens":10562,"-Arab":10563,"▁dukker":10564,"▁tittel":10565,"deler":10566,"konkurran":10567,"▁Romsdal":10568,"▁Trener":10569,"▁Reis":10570,"▁HAR":10571,"▁søndag,":10572,"▁Fag":10573,"▁m\n":10574,"osiali":10575,"▁13:2":10576,"▁STO":10577,"K:":10578,"▁Bakke":10579,"▁Ukraina":10580,"sselskapet":10581,"▁bygning":10582,"vise":10583,"▁Hushovd":10584,"▁ryggen":10585,"isering":10586,"▁fjernsyn":10587,"ting.\n":10588,"▁110":10589,"ktene":10590,"STAD":10591,"14":10592,"▁erstatte":10593,"▁kg\n":10594,"▁mob":10595,"▁Ton":10596,"▁bryst":10597,"ver.\n":10598,"▁VGs":10599,"▁Blad":10600,"▁Kab":10601,"▁skille":10602,"KKE":10603,"▁strålende":10604,"▁uke,":10605,"ason":10606,"▁2003\n":10607,"retter":10608,"▁UN":10609,"▁Fe":10610,"▁Mah":10611,"▁omgang.\n":10612,"sk\n":10613,"▁garanter":10614,"os.\n":10615,"rekke":10616,"▁Best":10617,"▁oktober.\n":10618,"▁fe":10619,"onger":10620,"elov":10621,"seren":10622,"-8":10623,"▁Sof":10624,"▁15:4":10625,"▁frivillige":10626,"▁Not":10627,"▁«E":10628,"ENN":10629,"▁fanget":10630,"▁Ray":10631,"▁Rel":10632,"▁supporter":10633,"▁muslimske":10634,"▁heng":10635,"▁Mikk":10636,"▁Wik":10637,"▁1-2":10638,"▁flyplassen":10639,"nerne":10640,"bol":10641,"▁representerte":10642,"▁Fotballspillere":10643,"▁forbeholder":10644,"▁detalj":10645,"båt":10646,"▁2015.\n":10647,"▁Siri":10648,"srud":10649,"▁flom":10650,"▁angivelig":10651,"gjøres":10652,"ape":10653,"▁finske":10654,"sikten":10655,"▁tiden,":10656,"▁gat":10657,"▁Inger":10658,"▁raskere":10659,"▁støttet":10660,"svin":10661,"▁nære":10662,"▁Tun":10663,"▁nordiske":10664,"▁mottak":10665,"▁heilt":10666,"▁Tønsberg":10667,"vice":10668,"▁lært":10669,"▁Holmen":10670,"▁Sovjet":10671,"▁Romer":10672,"▁bærer":10673,"sjonen":10674,"gruppe":10675,"▁overskudd":10676,"▁Cro":10677,"▁fastslår":10678,"▁sluppet":10679,"selv":10680,"▁5000":10681,"settes":10682,"▁Brussel":10683,"▁hverken":10684,"ota":10685,"ansen.\n":10686,"▁ansett":10687,"▁november.\n":10688,"▁våren":10689,"▁flere\n":10690,"▁glade":10691,"▁Problemet":10692,"smo":10693,"▁Bærum":10694,"støt":10695,"▁forlag":10696,"▁dominer":10697,"▁15:2":10698,"aksj":10699,"▁Bildet":10700,"▁sene":10701,"▁viktigere":10702,"▁såret":10703,"▁UD":10704,"▁penger,":10705,"heim.\n":10706,"sendt":10707,"▁uavgjort":10708,"▁Vlad":10709,"▁mistanke":10710,"nest":10711,"▁prosjekter":10712,"musikk":10713,"▁tanker":10714,"bånd":10715,"bry":10716,"▁fusjon":10717,"skar":10718,"mende":10719,"▁Kjør":10720,"▁anmeldt":10721,"sr":10722,"▁løsninger":10723,"▁Statisti":10724,"▁prøvd":10725,"ve.\n":10726,"▁mulig,":10727,"▁Rekdal":10728,"ET:\n":10729,"▁høst.\n":10730,"▁sine.\n":10731,"▁Utenriks":10732,"▁brød":10733,"13":10734,"▁Menn":10735,"ling,":10736,"▁taket":10737,"▁porteføl":10738,"back":10739,"utta":10740,"▁us":10741,"▁Styr":10742,"rimin":10743,"▁rest":10744,"▁søster":10745,"▁Torjus":10746,"bus":10747,"▁landslags":10748,"akat":10749,"▁bekrefte":10750,"▁ettertid":10751,"▁Tilb":10752,"▁lavt":10753,"▁forsknings":10754,"▁megler":10755,"edire":10756,"▁førerkort":10757,"▁omd":10758,"▁draps":10759,"▁bidro":10760,"▁Skip":10761,"mond":10762,"▁krise":10763,"▁regim":10764,"ultimedia":10765,"▁tape":10766,"▁Bilen":10767,"ærte":10768,"▁kommunale":10769,"▁Kværner":10770,"▁nøyaktig":10771,"-,":10772,"oney":10773,"▁Dat":10774,"iblant":10775,"▁kamper.\n":10776,"▁17:5":10777,"▁Charl":10778,"u,":10779,"▁10:4":10780,"▁lengst":10781,"kommun":10782,"▁iran":10783,"sbo":10784,"▁kompli":10785,"▁Bjørgen":10786,"▁Andresen":10787,"UND":10788,"▁opplyst":10789,"▁Busker":10790,"▁H)":10791,"16":10792,"▁183":10793,"▁struktur":10794,"elet":10795,"▁ligget":10796,"utvalg":10797,"▁fengsel.\n":10798,"▁verdensmester":10799,"▁sykehjem":10800,"ami":10801,"ordfører":10802,"▁12:4":10803,"aler.\n":10804,"-til":10805,"▁Bergen,":10806,"▁leverer":10807,"ellene":10808,"▁drev":10809,"▁gjort.\n":10810,"▁mandag,":10811,"▁Tob":10812,"ra\n":10813,"▁Stil":10814,"▁vanskeligere":10815,"▁partileder":10816,"▁Henry":10817,"ane,":10818,"spart":10819,"▁veksten":10820,"inspekt":10821,"▁avslutter":10822,"føringen":10823,"▁verne":10824,"▁FN-":10825,"cor":10826,"▁tjenester":10827,"▁Harstad":10828,"▁strateg":10829,"▁tidlegare":10830,"▁11:1":10831,"▁kamp,":10832,"▁Marianne":10833,"neren":10834,"▁foretatt":10835,"▁Jarle":10836,"▁Mandal":10837,"▁12:5":10838,"▁nådd":10839,"▁kalte":10840,"▁2012\n":10841,"▁tilknytning":10842,"▁2004.\n":10843,"sete":10844,"▁totale":10845,"▁nivået":10846,"▁Sverig":10847,"nesk":10848,"▁forhandlinger":10849,"▁Drammen":10850,"oy":10851,"▁innby":10852,"▁66":10853,"▁1996":10854,"▁skjel":10855,"▁delstaten":10856,"▁sit":10857,"▁Stadion":10858,"▁15:1":10859,"▁Lerken":10860,"aur":10861,"▁søkt":10862,"▁58":10863,"▁våk":10864,"hr":10865,"ament":10866,"▁11:2":10867,"OMM":10868,"▁utred":10869,"▁behovet":10870,"▁strøk":10871,"▁morsom":10872,"ekkende":10873,"▁Stens":10874,"imir":10875,"▁orden":10876,"▁grunnleggende":10877,"▁175":10878,"▁huske":10879,"fort":10880,"hi":10881,"▁dekket":10882,"uller":10883,"▁10:1":10884,"▁offentliggjort":10885,"kk\n":10886,"▁avvist":10887,"▁Skulle":10888,"▁gang\n":10889,"▁Innlegg":10890,"▁Isra":10891,"▁begrenset":10892,"▁min.\n":10893,"-7":10894,"▁Ath":10895,"▁Ve":10896,"ür":10897,"elin":10898,"▁leiligheten":10899,"▁kysten":10900,"▁2006.\n":10901,"▁Då":10902,"-laget":10903,"▁Test":10904,"EA":10905,"byg":10906,"▁2020":10907,"▁utenom":10908,"▁hjemmelaget":10909,"▁bruken":10910,"▁Moskva":10911,"▁(8":10912,"▁anklag":10913,"▁junior":10914,"▁radik":10915,"▁Eiendom":10916,"▁Atl":10917,"▁Knud":10918,"▁stanset":10919,"▁Nicol":10920,"▁Saudi-Arab":10921,"▁tv-":10922,"▁frihet":10923,"▁63":10924,"▁stjern":10925,"▁ledd":10926,"io\n":10927,"jeld":10928,"▁brem":10929,"▁Cas":10930,"albard":10931,"▁offer":10932,"▁minus":10933,"-topp":10934,"▁nettet:\n":10935,"▁Saddam":10936,"asjok":10937,"nev":10938,"▁samferdsel":10939,"▁14:2":10940,"▁trav":10941,"▁Kroati":10942,"5:":10943,"▁grønne":10944,"bul":10945,"jenesten":10946,"LAND":10947,"▁flagg":10948,"▁Svensk":10949,"▁bedre,":10950,"▁utfordringer":10951,"▁finansi":10952,"otball":10953,"▁Sus":10954,"▁vokser":10955,"▁magasin":10956,"▁Postboks":10957,"▁tilsynelatende":10958,"ting\n":10959,"▁føle":10960,"▁Prix":10961,"▁forholde":10962,"ett,":10963,"titt":10964,"ILL":10965,"▁Sørlandet":10966,"savtale":10967,"▁tvers":10968,"▁17:1":10969,"▁greske":10970,"▁medalje":10971,"▁planlegger":10972,"▁fremover":10973,"vend":10974,"▁systemet":10975,"▁politifolk":10976,"▁tyver":10977,"▁grenser":10978,"▁Myr":10979,"▁slit":10980,"▁SØ":10981,"aus":10982,"uks":10983,"▁Kurt":10984,"▁Goog":10985,"▁formen":10986,"sveg":10987,"fyr":10988,"▁sant":10989,"▁finansminister":10990,"▁12:2":10991,"▁tvunget":10992,"▁(198":10993,"▁hest":10994,"sselskap":10995,"▁International":10996,"stasjonen":10997,"▁formål":10998,"formann":10999,"o.":11000,"▁seksuelle":11001,"▁arbeide":11002,"▁Krip":11003,"ika":11004,"▁Dra":11005,"▁Karasjok":11006,"▁samarbeide":11007,"▁Kronprin":11008,"ner.\n":11009,"▁Svalbard":11010,"▁DNB":11011,"spark":11012,"▁Spareb":11013,"▁TOR":11014,"▁nøkkel":11015,"▁...":11016,"▁fremme":11017,"▁omtale":11018,"board":11019,"▁selges":11020,"▁Niger":11021,"▁Riis":11022,"▁seriem":11023,"▁dramatiske":11024,"▁aktuell":11025,"▁Israels":11026,"▁Fakta:":11027,"åg":11028,"▁Stortinget.\n":11029,"▁tidenes":11030,"rinn":11031,"▁idé":11032,"▁Lær":11033,"aneren":11034,"▁gal":11035,"▁eksploder":11036,"▁12\n":11037,"roppen":11038,"holt":11039,"▁dels":11040,"▁hvorvidt":11041,"▁Haakon":11042,"▁Beckham":11043,"▁Enkel":11044,"nefoss":11045,"estem":11046,"▁media":11047,"▁14:1":11048,"skuddet":11049,"▁kritikken":11050,"▁Ville":11051,"▁Power":11052,"keren":11053,"▁ganger,":11054,"▁System":11055,"grader":11056,"▁århund":11057,"▁omtalte":11058,"▁defini":11059,"▁Lit":11060,"▁59":11061,"role":11062,"øyene":11063,"odd":11064,"▁2016\n":11065,"M\n":11066,"olleyball":11067,"▁NFF":11068,"CH":11069,"▁spiser":11070,"▁danse":11071,"▁Finans\n":11072,"▁Lange":11073,"-n":11074,"▁målt":11075,"▁Fulham":11076,"▁Ross":11077,"▁psykisk":11078,"▁2001.\n":11079,"▁flukt":11080,"ando":11081,"▁kje":11082,"▁forestilling":11083,"▁vises":11084,"bilde":11085,"▁AU":11086,"▁fornuf":11087,"▁Sin":11088,"▁Hann":11089,"▁vilkår":11090,"lek":11091,"▁byer":11092,"▁Svind":11093,"▁Wa":11094,"▁Løv":11095,"ater\n":11096,"▁øyeblikket":11097,"▁Amb":11098,"mi":11099,"ER\n":11100,"▁nært":11101,"▁unnskyld":11102,"tt.\n":11103,"▁kristne":11104,"▁rop":11105,"▁bredt":11106,"uch":11107,"▁produksjonen":11108,"▁skipet":11109,"▁uker.\n":11110,"▁Gahr":11111,"▁73":11112,"▁dette\n":11113,"▁tilnær":11114,"▁Nyheter":11115,"væp":11116,"▁endelige":11117,"OP":11118,"▁trafikken":11119,"▁(til":11120,"▁team":11121,"▁fjellet":11122,"▁rene":11123,"-kvalifiser":11124,"rollen":11125,"▁3000":11126,"▁musk":11127,"▁styrer":11128,"▁etterforsker":11129,"▁kjenne":11130,"▁nyn":11131,"▁Ukrain":11132,"▁opptak":11133,"▁(E":11134,"▁reglene":11135,"amme":11136,"kommen":11137,"inge":11138,"▁oppsummer":11139,"▁Roma":11140,"istol":11141,"▁tilbudet":11142,"▁kolli":11143,":35\n":11144,"▁2000\n":11145,"▁Nina":11146,"▁Venez":11147,"▁Middel":11148,"▁NOK":11149,"▁Bud":11150,"▁kring":11151,"analy":11152,"▁Ker":11153,"▁gong":11154,"▁løslatt":11155,"▁overta":11156,"px\n":11157,"klasse":11158,"kkelen":11159,"▁afrik":11160,"▁misly":11161,"▁banen.\n":11162,"▁Forb":11163,"smed":11164,"▁Bis":11165,"▁utbygging":11166,"fen":11167,"▁Rangers":11168,"sområ":11169,"▁distri":11170,"▁konservative":11171,"▁slet":11172,"▁1994":11173,"▁67":11174,"▁Røy":11175,"jeg":11176,"agraf":11177,"▁Laget":11178,"smiljø":11179,"▁månedene":11180,"▁«R":11181,"▁Sola":11182,"▁Aft":11183,"årige":11184,"line":11185,"▁stillingen":11186,"likter":11187,"▁understreket":11188,"▁Bek":11189,"▁likt":11190,"▁US":11191,"▁godkj":11192,"▁Krek":11193,"▁Aftenposten\n":11194,"▁ed":11195,"▁uvanlig":11196,"▁Sev":11197,"▁presentert":11198,"▁poeng,":11199,"▁1-":11200,"iden\n":11201,"▁lurer":11202,"▁frik":11203,"▁informasjonssjef":11204,"▁biskop":11205,"▁nevn":11206,"▁Én":11207,"▁Finnsnes":11208,"▁Russlands":11209,"uen":11210,"▁signal":11211,"espark":11212,"okum":11213,"▁Est":11214,"otek":11215,"adresse":11216,"resjon":11217,"støtte":11218,"▁stjålet":11219,"▁desember.\n":11220,"▁1,2":11221,"GE":11222,"▁fabrikk":11223,"▁sidan":11224,"▁1.2":11225,"▁Retten":11226,"▁jernban":11227,"PS\n":11228,"▁salt":11229,"asjon\n":11230,"▁Spørsmålet":11231,"▁Ronaldo":11232,"▁dokumentar":11233,"▁kompon":11234,"aer":11235,"▁aktivt":11236,"▁Win":11237,"▁Kenneth":11238,"▁20\n":11239,"▁fylt":11240,"økene":11241,"▁13:1":11242,"lepp":11243,"▁kommunal":11244,"ing.":11245,"▁1.3":11246,"▁Grø":11247,"▁smug":11248,"gard":11249,"▁11:5":11250,"diriger":11251,"▁kirken":11252,"▁april.\n":11253,"leng":11254,"▁«C":11255,"▁fortel":11256,"▁folk.\n":11257,"▁byen,":11258,"▁skred":11259,"▁fremtiden":11260,"DR":11261,"▁Cub":11262,"▁selskapet.\n":11263,"▁Ludvig":11264,"dro":11265,"rens":11266,"▁fung":11267,"▁kritiske":11268,"▁Mart":11269,"ssystem":11270,"▁TV2":11271,"▁Slekten":11272,"▁takke":11273,"ad,":11274,"▁brasili":11275,"▁Ståle":11276,"skader":11277,"▁velgerne":11278,"▁pi":11279,"drift":11280,"▁Louis":11281,"▁italiensk":11282,"omsø":11283,"▁deriblant":11284,"▁*Denne":11285,"▁Merc":11286,"▁grus":11287,"▁verdier":11288,"-opp":11289,"øyen":11290,"▁nytte":11291,"▁onsdag,":11292,"eritt":11293,"▁begei":11294,"kjer":11295,"verk.\n":11296,"▁jobb,":11297,"▁Ida":11298,"▁Berit":11299,"▁]\n":11300,"ikk\n":11301,"▁eksport":11302,"▁Hønefoss":11303,"øter":11304,"▁Elling":11305,"▁bade":11306,"ig\n":11307,"-keeper":11308,"▁levende":11309,"apirut":11310,"▁største\n":11311,"ledet":11312,"▁måneden":11313,"▁fremmed":11314,"▁National":11315,"sdagen":11316,"▁steget":11317,"▁Kilder\n":11318,"▁konflikten":11319,"▁Vårt":11320,"▁overf":11321,"ynam":11322,"▁forventet":11323,"▁Dansk":11324,"▁frispark":11325,"▁trønder":11326,"▁Gau":11327,"▁Ash":11328,"▁09:4":11329,"fornøyd":11330,"▁bilene":11331,"out":11332,".:":11333,"▁sanger":11334,"verdige":11335,"▁Nordmenn":11336,"▁sveit":11337,"▁ved\n":11338,"▁trans":11339,"jalp":11340,"▁Dø":11341,"▁skjønte":11342,"▁gyl":11343,"ad.\n":11344,"sbil":11345,"jes":11346,"ER:\n":11347,"lok":11348,"ve\n":11349,"▁kos":11350,"▁regionen":11351,"▁Jose":11352,"eten":11353,"oget":11354,"▁etn":11355,"▁statsminist":11356,"▁ytring":11357,"▁Fullført\n":11358,"ALL":11359,"▁kilde":11360,"sover":11361,"▁legi":11362,"▁nordmannen":11363,"▁stav":11364,"meldt":11365,"▁veien.\n":11366,"▁kapasitet":11367,"▁forel":11368,"elser\n":11369,"OD":11370,"▁mur":11371,"ji":11372,"▁bråk":11373,"▁Nord-Trøndelag":11374,"▁Tryg":11375,"▁garanti":11376,"bruket":11377,"▁hans.\n":11378,"kvar":11379,"▁kle":11380,"▁hin":11381,"deleg":11382,"▁Søn":11383,"▁varsl":11384,"▁riktignok":11385,"espillere":11386,"▁begrav":11387,"▁grati":11388,"▁Nordland":11389,"▁trend":11390,"▁straks":11391,"sbas":11392,"▁hek":11393,"ms":11394,"alen\n":11395,"▁Young":11396,"ålmod":11397,"▁proff":11398,"ger,":11399,"▁Charles":11400,"▁pågår":11401,"▁lansert":11402,"åt":11403,"alist":11404,"▁Astrid":11405,"▁Hj":11406,"▁intens":11407,"▁urett":11408,"▁muligens":11409,"▁Gri":11410,"verden":11411,"▁oblig":11412,"▁Ellers":11413,"▁Natt":11414,"-9":11415,"sbjørn":11416,"▁Islam":11417,"▁Albert":11418,"▁utro":11419,"▁kveldens":11420,"▁helhet":11421,"▁Leon":11422,"▁måte,":11423,"▁overbevist":11424,"▁utsikt":11425,"zon":11426,"▁Tex":11427,"kkende":11428,"▁Is":11429,"▁rans":11430,"▁09:2":11431,"▁Vill":11432,"▁fen":11433,"▁Tan":11434,"▁tøffe":11435,"▁Tony":11436,"hengighet":11437,"▁11:4":11438,"▁Portugal":11439,"▁vakre":11440,"opter":11441,"▁11.\n":11442,"▁Bjørnd":11443,"▁Skatt":11444,"▁ventes":11445,"samlingen":11446,"inntekt":11447,"▁Teg":11448,"▁KJ":11449,"bolig":11450,"▁Vit":11451,"▁henge":11452,"▁uskyl":11453,"▁kab":11454,"fød":11455,"▁krevde":11456,"rd":11457,"▁dommeren":11458,"▁protester":11459,"▁stress":11460,"▁etterretning":11461,"▁artist":11462,"▁comeback":11463,"▁Illustrasjon":11464,"▁Digitalsport\n":11465,"▁deleg":11466,"▁London.\n":11467,"▁ja,":11468,"fast":11469,"sbru":11470,"▁spekul":11471,"▁strake":11472,"▁betalte":11473,"▁siste\n":11474,"▁tax":11475,"▁innstilling":11476,"▁samtale":11477,"▁Torjussen\n":11478,"▁Sain":11479,"▁Prø":11480,"slag.\n":11481,"sjet":11482,"▁da,":11483,"varsel":11484,"▁Tap":11485,"▁DN.no":11486,"salg":11487,"▁kro":11488,"▁flytter":11489,"▁februar.\n":11490,"akker":11491,"elig\n":11492,"▁ubehag":11493,"▁signer":11494,"▁18:2":11495,"vedt":11496,"sikring":11497,"elys":11498,"▁kull":11499,"▁deltatt":11500,"▁stort\n":11501,"▁opprinnelige":11502,"▁17:4":11503,"▁beskriv":11504,"▁Dani":11505,"▁Gunder":11506,"▁mesterlig":11507,"▁Flo":11508,"▁Sul":11509,"renne":11510,"▁11\n":11511,"derud":11512,"YR":11513,"▁Yng":11514,"▁Tid\n":11515,"▁Brå":11516,"sterrik":11517,"▁Cath":11518,"▁Braath":11519,"▁ranet":11520,"▁Bloom":11521,"▁meter,":11522,"▁6.\n":11523,"▁voldt":11524,"▁kommer\n":11525,"▁2003.\n":11526,"▁gjem":11527,"klass":11528,"▁Linn":11529,"▁retten.\n":11530,"its":11531,"ner,":11532,"smid":11533,"▁beslut":11534,"▁Stefan":11535,"▁utvidet":11536,"▁hasj":11537,"▁aktører":11538,"▁2)":11539,"▁Rør":11540,"▁undersøke":11541,"skred":11542,"▁etasje":11543,"▁Ten":11544,"▁løpe":11545,"con":11546,"▁Dub":11547,"kontor":11548,"▁Hedmark":11549,"▁nå\n":11550,"fjorden":11551,"yrer":11552,"▁drepe":11553,"▁Otto":11554,"▁England\n":11555,"▁Alexand":11556,"lima":11557,"eveg":11558,"▁hjalp":11559,":05\n":11560,"▁UK":11561,"akte":11562,"▁beklager":11563,"▁satsing":11564,"▁utnytte":11565,"▁Bell":11566,"▁Lasse":11567,"▁******":11568,"alisering":11569,"und.\n":11570,"ting,":11571,"ord\n":11572,"ansvarlig":11573,"legger":11574,"retnings":11575,"▁så\n":11576,"festival":11577,"▁omsetning":11578,"meldingen":11579,"▁Nam":11580,"▁kontrover":11581,"nen":11582,"▁søkte":11583,"-Euro":11584,"▁1.5":11585,"▁før\n":11586,"▁09:5":11587,"â°":11588,"▁1800":11589,"▁arabiske":11590,"▁Tilbake":11591,"fond":11592,"▁påtalemyndighet":11593,"▁PR":11594,"▁Music":11595,"▁Old":11596,"perio":11597,"▁minor":11598,"stemm":11599,"▁ått":11600,"▁sentralbord":11601,":02\n":11602,"▁Famili":11603,"▁Hold":11604,"▁personen":11605,"ivert":11606,"▁fron":11607,"▁abonnement":11608,"▁Bakgrunnen":11609,"▁Malm":11610,"▁Rødt":11611,"▁Resultater":11612,"▁torsdag,":11613,"▁Ungdom":11614,"z.\n":11615,"▁forskere":11616,"▁delte":11617,"dam":11618,"▁tilsvarer":11619,"▁Sikkerhet":11620,"kker.\n":11621,"▁miljøet":11622,"▁synes\n":11623,"4.":11624,"▁Rush":11625,"▁Bardufoss":11626,"▁svaret":11627,"rapport":11628,"▁Kjø":11629,"tt,":11630,"▁studie":11631,"▁studio":11632,"▁z":11633,"listen":11634,"▁religiøse":11635,"▁motstander":11636,",0":11637,"▁investering":11638,"departementet.\n":11639,"▁rydde":11640,"▁lufthavn":11641,"▁overn":11642,"▁Group":11643,"atch":11644,"kore":11645,"▁Tyskland.\n":11646,"▁Lillehammer":11647,"▁Verden":11648,"▁nedrykk":11649,"▁nettsted":11650,"▁forferdelig":11651,"▁Phili":11652,"eds":11653,"▁filosof":11654,"▁forsvars":11655,"▁videoen":11656,"ver,":11657,"gress":11658,"handlingene":11659,"okrim":11660,"shem":11661,"▁maksim":11662,"▁bestemmer":11663,"▁nedover":11664,"skand":11665,"ASS":11666,"aj":11667,"▁vedkommende":11668,"▁Kraft":11669,"ays":11670,"▁Kur":11671,"▁tilstede":11672,"▁amerikanerne":11673,"sentere":11674,"▁yngste":11675,"▁09:1":11676,"▁Senterpartiet":11677,"▁Åp":11678,"▁helset":11679,".)\n":11680,"▁målene":11681,"eland.\n":11682,"▁tidligere\n":11683,"▁alle.\n":11684,"▁Kirke":11685,"▁etterkant":11686,"▁oljesel":11687,"▁pårørende":11688,"▁Litteratur\n":11689,"▁Vladimir":11690,"▁kreditt":11691,"▁regissør":11692,"system":11693,"helse":11694,"▁rettigheter":11695,"▁legevakt":11696,"▁normal":11697,"▁homofile":11698,"▁Larvik":11699,"shav":11700,"▁period":11701,"æs":11702,"▁familier":11703,"▁Fager":11704,"kker,":11705,"▁Samme":11706,"▁brakt":11707,"▁adressa":11708,"sjektet":11709,"▁oppslutning":11710,"▁Valle":11711,"▁inform":11712,"▁aviser":11713,"▁1.4":11714,"▁Nev":11715,"▁Seb":11716,"utstyr":11717,"by.\n":11718,"bye":11719,"KT":11720,"peng":11721,"▁daglige":11722,"steg":11723,"▁lek":11724,"senter\n":11725,"▁lærere":11726,"▁bilder\n":11727,"▁provo":11728,"▁rettssaken":11729,"▁berg":11730,"▁byråd":11731,"minn":11732,"▁psykiat":11733,"▁nytt.\n":11734,"▁Fjord":11735,"idae":11736,"▁Rösler":11737,"▁Het":11738,"▁liv,":11739,"▁Nord-Korea":11740,"▁utøvere":11741,"INN":11742,"▁fremover.\n":11743,"▁Irak.\n":11744,"havet":11745,"▁Raf":11746,"▁barnevern":11747,"brå":11748,"▁Nov":11749,"ANN":11750,"ottak":11751,"ve,":11752,"▁Trafikk":11753,"arer":11754,"▁Interaktiv":11755,"▁2016.\n":11756,"▁Sak":11757,"▁ringe":11758,"▁Gen":11759,"orien":11760,"▁Lene":11761,"-direktør":11762,"▁Narvik":11763,"65":11764,"ivt":11765,"▁årlige":11766,"▁gjennomgang":11767,"ppin":11768,"▁Stort":11769,"penger":11770,"▁vedlikehold":11771,"▁olje-":11772,"▁Com":11773,"unnskap":11774,"▁Telef":11775,"25":11776,"▁gud":11777,"▁Sem":11778,"▁It":11779,"▁engasjert":11780,"p\n":11781,"▁klin":11782,"spost":11783,"▁Romania":11784,"▁stjerne":11785,"B\n":11786,"▁knytte":11787,"▁mannskap":11788,"▁2-2":11789,"▁15:3":11790,"▁sted.\n":11791,"▁Sann":11792,"▁Ferguson":11793,"=\"melding":11794,"▁avgjørelsen":11795,"▁kontaktet":11796,"▁song":11797,"▁engasjement":11798,"▁Mis":11799,"▁klient":11800,"▁Fi":11801,"▁Russland.\n":11802,"▁oljepris":11803,"angel":11804,"▁Cast":11805,"ouse":11806,"lister":11807,"sammen":11808,"▁falsk":11809,"▁prioriter":11810,"@aften":11811,"▁fortjener":11812,"forskjell":11813,"skriv":11814,"▁banker":11815,"▁Europas":11816,"direktoratet":11817,"▁invitert":11818,"▁Adresseavisen":11819,"▁trodd":11820,"stituttet":11821,"▁Eksemp":11822,"▁første\n":11823,"▁mener\n":11824,"ikk,":11825,"▁voksen":11826,"▁Are":11827,"▁Stang":11828,"vinnere":11829,"▁bibli":11830,"▁grunner":11831,"olje":11832,"▁sokkel":11833,"▁Eide":11834,"ENS":11835,"▁ut.":11836,"sats":11837,"▁sjakk":11838,"▁iv":11839,"▁kino":11840,"h,":11841,"journali":11842,"olske":11843,"▁bøn":11844,"▁tilpass":11845,"=\"melding\"":11846,"strö":11847,"och":11848,"▁dav":11849,"▁Marcus":11850,"F\n":11851,"Norge":11852,"▁rødgrønne":11853,"RIGER":11854,"▁foreslått":11855,"▁Wol":11856,"▁sektor":11857,"▁Tyskland,":11858,"▁Lab":11859,"▁Særlig":11860,"▁Buskerud":11861,"▁(f.":11862,"▁Oilers":11863,"▁kode":11864,"▁bilen.\n":11865,"▁Kommunen":11866,"▁Ruud,":11867,"▁opprettholde":11868,"▁Nielsen":11869,"▁LIV":11870,"▁Økokrim":11871,"Ãž":11872,"▁fotball.\n":11873,"▁ær":11874,"▁Milli":11875,"▁perioder":11876,"▁heldigvis":11877,"streme":11878,"▁10:3":11879,"edrag":11880,"▁medlemmene":11881,"▁Comp":11882,"▁tirsdag,":11883,"▁Record":11884,"▁meldingen":11885,"mek":11886,"▁mediene":11887,"▁EØS-":11888,"▁mangfold":11889,"▁16:3":11890,"▁seksjon":11891,"▁beina":11892,"▁Long":11893,"▁Street":11894,"▁skolen.\n":11895,"▁landet\n":11896,"▁Byen":11897,"▁Krever":11898,"komp":11899,"▁guttene":11900,"scor":11901,"-spilleren":11902,"sbehandling":11903,"▁behandle":11904,"OMDI":11905,"eldigvis":11906,"▁#OMDI":11907,"▁Kommentar":11908,"▁Arnt":11909,"rus":11910,"▁flyselskap":11911,"▁Wilhelm":11912,"▁IKKE":11913,"▁HAN":11914,"▁1995":11915,"▁gjest":11916,"▁Afton":11917,"▁Il":11918,"▁innstilt":11919,"afe":11920,"▁eksempler":11921,"▁Sørland":11922,"▁Asia":11923,"▁Therese":11924,"▁Strømsgodset":11925,"▁Johnson":11926,"▁dagen,":11927,"▁fotball\n":11928,"▁kvinner.\n":11929,"▁Terry":11930,"▁Skjel":11931,"østen":11932,"▁mistenkte":11933,"▁#OMDIRIGER":11934,"▁usik":11935,"▁soldat":11936,"-regjer":11937,"▁REUTERS":11938,"▁fast.\n":11939,"▁gram":11940,"fet":11941,"ille,":11942,"▁Juvent":11943,"▁drept.\n":11944,"▁talent":11945,"▁lenger.\n":11946,"sson\n":11947,"▁personene":11948,"asc":11949,"-spillerne":11950,"▁praktisk":11951,"▁planene":11952,"▁tapet":11953,"▁begått":11954,"▁Hotel":11955,"D:":11956,"▁markedet.\n":11957,"ønnen":11958,"▁avslutte":11959,"yerdahl":11960,"▁forsvinner":11961,"▁Telefon:":11962,"▁Phil":11963,"▁eliteserien":11964,"▁Brown":11965,"▁mete":11966,"▁Prisen":11967,"▁omstrid":11968,"▁mennesker,":11969,"▁Boks":11970,"▁bodd":11971,"▁mann,":11972,"▁Sten":11973,"orger":11974,"▁organisert":11975,"▁avgjørelse":11976,".no/":11977,"▁Mitt":11978,"▁skader.\n":11979,"▁Engelsk":11980,"▁klager":11981,"▁utlandet.\n":11982,"▁refle":11983,"bror":11984,"▁synlig":11985,"ftelsen":11986,"sklubb":11987,"▁handels":11988,"▁Steve":11989,"▁politiet\n":11990,"stemenn":11991,"▁tempo":11992,"riminer":11993,"spilleren":11994,"dy":11995,"onym":11996,"▁Maks":11997,"aldt":11998,"▁toll":11999,"▁Big":12000,"▁påvirket":12001,"opper":12002,"row":12003,"▁Reuters\n":12004,"▁tilp":12005,"▁Cra":12006,"▁mer,":12007,"▁lag.\n":12008,"▁endret:":12009,"▁mask":12010,"▁hverandre,":12011,"▁Tørum":12012,"▁40\n":12013,"▁knust":12014,"▁menn\n":12015,"sforbund":12016,"▁relev":12017,"▁sus":12018,"edon":12019,"▁al-Qa":12020,"▁hjemmebane":12021,"▁Carol":12022,"▁Zlat":12023,"▁DN.NO":12024,"▁straffespark":12025,"▁mange\n":12026,"eled":12027,"▁Pop":12028,"▁14:3":12029,"▁enormt":12030,"oo":12031,"dist":12032,"▁Handel":12033,"▁folkeav":12034,"▁oppfatt":12035,"▁oppstår":12036,"and\n":12037,"▁måttet":12038,"▁Hødd":12039,"rain":12040,"▁våpenh":12041,"▁folk,":12042,"▁Mexico":12043,"ørs":12044,"feltet":12045,"vernet":12046,"▁typisk":12047,"spartiene":12048,"ismen":12049,"▁bånd":12050,"▁FIFA":12051,"▁13:3":12052,"▁uttalelser":12053,"▁giftet":12054,"ekom":12055,"▁spilleren":12056,"▁skjedde.\n":12057,"skrav":12058,"▁T.":12059,"kamera":12060,"▁forårsak":12061,"▁(16":12062,"▁Forfatter":12063,"ur\n":12064,"forskning":12065,"ora":12066,"▁aggress":12067,"▁Lad":12068,"via":12069,"▁kilomet":12070,"▁klubbene":12071,"▁(som":12072,"verker":12073,"▁skadde":12074,"▁oppvar":12075,"▁styrt":12076,"▁Spill":12077,"▁ting.\n":12078,"▁Ska":12079,"usale":12080,"område":12081,"TH":12082,"▁2-":12083,"▁Bodø/G":12084,"emann":12085,"▁Ronny":12086,"40\n":12087,"▁AFP\n":12088,"▁Oslos":12089,"▁kjeller":12090,"▁Utøver":12091,"▁vært\n":12092,"uli":12093,"▁Semb":12094,"anlegget":12095,"▁lyn":12096,"▁reagerte":12097,"▁Zealand":12098,"føreren":12099,"▁proses":12100,"▁fvn.no":12101,"▁medisinsk":12102,"▁12:1":12103,"39":12104,"▁Newcastle":12105,"▁0-0":12106,"atori":12107,"▁behandles":12108,"iri":12109,"▁pådro":12110,"▁trusler":12111,"▁minutter,":12112,"-årige":12113,"orolog":12114,"▁retningslin":12115,"▁Palesti":12116,"▁01\n":12117,"▁laget,":12118,"JON":12119,"▁3)":12120,"▁konsesjon":12121,"▁historie.\n":12122,"▁Fordi":12123,"ien,":12124,"▁feil,":12125,"▁grunnlaget":12126,"▁globale":12127,"-program":12128,":03\n":12129,"▁ifra":12130,"▁spansk":12131,"▁Storeb":12132,"und,":12133,"▁vokste":12134,"▁Aston":12135,"▁(10":12136,"▁Joe":12137,"▁gjennomførte":12138,"ialist":12139,"▁utgangen":12140,"▁95":12141,"▁øynene":12142,"▁Kongsv":12143,"▁innbyggerne":12144,"▁norges":12145,"▁forbundet":12146,"▁arkitekt":12147,"▁Berger":12148,"▁naz":12149,"ret,":12150,"▁to.\n":12151,"▁demokratiske":12152,"▁Mike":12153,"▁(15":12154,"▁resul":12155,"▁digitale":12156,"▁dager,":12157,"▁lengste":12158,"▁undertegnes":12159,"▁CH":12160,"▁overbevis":12161,"ates":12162,"▁Celtic":12163,"▁VAL":12164,"alisere":12165,"▁samfunns":12166,"▁undersøkelsen":12167,"▁por":12168,"▁gevin":12169,"▁alle,":12170,"▁kombinert":12171,"ligheter":12172,"roleum":12173,"interes":12174,"▁lyktes":12175,"▁farlige":12176,"samfunn":12177,"▁rute":12178,"▁Kyst":12179,"merk":12180,"▁deltag":12181,"▁europeisk":12182,"assek":12183,"rening":12184,"▁musikken":12185,"▁preg":12186,"▁cru":12187,"▁Myk":12188,"▁kommentator":12189,"▁løfter":12190,"jempe":12191,"▁bær":12192,"▁Golf":12193,"▁it":12194,"cker":12195,"▁Ses":12196,"▁Str":12197,"scenic":12198,"▁LAR":12199,"▁fyller":12200,"▁Escenic":12201,"▁forfatteren":12202,"▁Bom":12203,"▁Marg":12204,"▁Aur":12205,"▁camp":12206,"▁kollektiv":12207,"livet":12208,"▁Hennes":12209,"▁bind":12210,"▁stige":12211,"▁betal":12212,"▁K.":12213,"verdighet":12214,"▁Enkelte":12215,"▁bl.":12216,"▁pr.":12217,"▁eval":12218,"▁-0":12219,"▁Simen":12220,"▁dus":12221,"▁møttes":12222,"▁nettsi":12223,"▁Svenske":12224,"▁Ball":12225,"edagog":12226,"h.\n":12227,".19":12228,"▁befant":12229,"▁Nordsjø":12230,"▁erkjenner":12231,"▁kommune,":12232,"▁Royal":12233,"vne":12234,"▁humor":12235,"draget":12236,"▁ødelegge":12237,"▁lenge.\n":12238,"makt":12239,"▁foreslå":12240,"▁«Det":12241,"▁Klubben":12242,"▁Kl.":12243,"▁Mass":12244,"▁banket":12245,"▁08:4":12246,"▁Ungarn":12247,"▁strenge":12248,"rent":12249,"▁Tab":12250,"anj":12251,"stjernen":12252,"▁kollap":12253,"▁sorg":12254,"▁kvarter":12255,"do":12256,"ikter":12257,"▁Nap":12258,"▁Roald":12259,"▁Sverige\n":12260,"ksjef":12261,"etak":12262,"▁eksperter":12263,"hengere":12264,".04.2008":12265,"ampton":12266,"elt.\n":12267,"▁turister":12268,"▁holdning":12269,"▁departement":12270,"▁bene":12271,"▁øverst":12272,"løpet":12273,"vester":12274,"▁Moskv":12275,"▁grø":12276,"▁europ":12277,"▁Fornavn\n":12278,"▁gjort,":12279,"▁organisasjoner":12280,"enny":12281,"aust":12282,"asp":12283,"▁seriekamp":12284,"▁Slott":12285,"▁innh":12286,"▁Helsing":12287,"følger":12288,"▁senere.\n":12289,"▁feltet":12290,"-kampen":12291,"▁etablerte":12292,"▁Forrige":12293,"-en":12294,"▁Aleksander":12295,"skan":12296,"tilsyn":12297,"marks":12298,"▁statsrå":12299,"▁Vann":12300,"▁epost":12301,"▁havet":12302,"utvalget":12303,"våp":12304,"▁Biskop":12305,"▁Kvinner":12306,"▁endret:\n":12307,"▁kunde":12308,"▁definitivt":12309,"rommet":12310,"▁bit":12311,"▁Hong":12312,"▁deg.\n":12313,"▁gjester":12314,"▁automatisk":12315,"▁NTNU":12316,"▁ha\n":12317,"▁2002.\n":12318,"▁fysiske":12319,"▁Jones":12320,"▁--":12321,".\"\n":12322,"talt":12323,"▁Gustav":12324,"▁natten":12325,"▁Bildeserier\n":12326,"▁Lor":12327,"▁japanske":12328,"▁innbrudd":12329,"IM":12330,"▁billetter":12331,"muse":12332,"▁Grete":12333,"▁fredspris":12334,"▁stenge":12335,"▁henne,":12336,"RETT":12337,"▁(k":12338,"▁Øn":12339,"▁Slike":12340,"▁Sot":12341,"▁Program":12342,"▁risikoen":12343,"▁ulykken.\n":12344,"▁SIST":12345,"▁domin":12346,"▁yd":12347,"▁forkorte":12348,"▁Telefax":12349,"▁sin,":12350,"▁følelse":12351,"▁Moe":12352,"/ANB":12353,"▁Bron":12354,"▁Sveriges":12355,"▁fremfor":12356,"▁identitet":12357,"▁omgang,":12358,"▁Bente":12359,"▁Midtøsten":12360,"▁Syk":12361,"▁innspil":12362,"▁hovedsakelig":12363,"▁politistasjon":12364,"PR":12365,"▁tils":12366,"-åringens":12367,"gjenger":12368,"orkild":12369,"▁politiadvokat":12370,"avner":12371,"rosoft":12372,"▁tilskuere":12373,"hus.\n":12374,"skjed":12375,"▁Åtte":12376,"▁kjendis":12377,"raket":12378,"▁styrket":12379,"▁68":12380,"▁Luc":12381,"▁Miss":12382,"▁Veldig":12383,"▁overh":12384,"appen":12385,"▁velgere":12386,"ikeren":12387,"▁konkluderer":12388,"▁Wind":12389,"▁pappa":12390,"NING":12391,"▁plag":12392,"and.\n":12393,"▁base":12394,"▁sinn":12395,"▁konsep":12396,"oldater":12397,"▁Økonom":12398,"▁nerv":12399,"▁innlegg)\n":12400,"▁Va":12401,"▁Holmenk":12402,"okka":12403,"▁DV":12404,"▁300\n":12405,"▁daværende":12406,"▁Vinner":12407,"▁Privat\n":12408,"▁innvandrer":12409,"▁bussen":12410,"▁Ep":12411,"▁2286":12412,"▁1950":12413,"▁Fotball\n":12414,"▁Nobel":12415,"▁17:3":12416,"spillere\n":12417,"unk":12418,"▁pågrip":12419,"▁Adam":12420,"▁jevnt":12421,"tilbud":12422,"▁drøy":12423,"▁håndtere":12424,"▁tit":12425,"▁afgh":12426,"ig.\n":12427,"orf":12428,"▁Godt":12429,"▁opplevel":12430,"▁nederlandske":12431,"▁spiss":12432,"▁flertallet":12433,"▁narkotika":12434,"▁trives":12435,"▁kommentarer":12436,"▁Spor":12437,"▁Politiets":12438,"i:":12439,"▁Ric":12440,"▁løft":12441,"▁Nad":12442,"▁barnd":12443,"▁Thorkild":12444,"▁Fug":12445,"▁SKRIV":12446,"▁Mette-Mar":12447,"▁Kunde":12448,"▁treffer":12449,"iko":12450,"▁(17":12451,"▁avslutning":12452,"mennes":12453,"ion\n":12454,"▁tåle":12455,"▁nordvest":12456,"▁und":12457,"▁NRKs":12458,"komiteen":12459,"▁General":12460,"▁Green":12461,"▁Gang":12462,"▁firma":12463,"ministrasjon":12464,"igg":12465,"øtt":12466,"▁130":12467,"▁Mester":12468,"▁tanken":12469,"▁Exp":12470,"▁Kristiansand.\n":12471,"utsig":12472,"u.\n":12473,"▁rettferdig":12474,"▁traged":12475,"ÆR":12476,"▁statssekretær":12477,"v,":12478,"vis\n":12479,"▁tatt.\n":12480,"søy":12481,"▁ennå.\n":12482,"▁Dagsavisen.\n":12483,"▁arter":12484,"▁Frps":12485,"bildene":12486,"▁Fos":12487,"▁telefonen":12488,"▁nokså":12489,"▁Somali":12490,"ssykehus":12491,"▁ytre":12492,"▁nominert":12493,"arderob":12494,"▁Reidar":12495,"▁Mats":12496,"▁stortingsrepresentant":12497,"▁d'":12498,"▁Of":12499,"▁82":12500,"▁død.\n":12501,"▁nevnt":12502,"▁hensikt":12503,"enter.\n":12504,"▁back":12505,"▁7.\n":12506,"▁skam":12507,"▁Dagen":12508,"▁falske":12509,"▁Listhaug":12510,"▁18:1":12511,"▁syns":12512,"▁misbru":12513,"▁Inst":12514,"sfull":12515,"ilj":12516,"nar":12517,"▁avdøde":12518,"CANPIX":12519,"▁gress":12520,"ninga":12521,"valt":12522,"▁duell":12523,"ance":12524,"▁sikrer":12525,"▁avslutt":12526,"fisere":12527,"▁plukket":12528,"▁4)":12529,"ttere":12530,"▁yrke":12531,"▁NORDLY":12532,"▁statlig":12533,"▁Olaf":12534,"veld":12535,"▁10.\n":12536,"17":12537,"smøtet":12538,"▁brevet":12539,"▁pat":12540,"▁Dår":12541,"-W":12542,"▁Unge":12543,"▁forlater":12544,"▁Love":12545,"upen":12546,"▁mal":12547,"▁08:5":12548,"▁Eva":12549,"▁Cent":12550,"▁soldatene":12551,"▁makten":12552,"▁dru":12553,"ur.\n":12554,"agno":12555,"▁politikken":12556,"▁Play":12557,"▁Undersøk":12558,"▁sprint":12559,"▁Gazast":12560,"▁leger":12561,"▁imponerende":12562,"▁gjentatte":12563,"▁Barth":12564,"▁forbudt":12565,"befolk":12566,"teborg":12567,"▁bane":12568,"gnet":12569,"▁Heldigvis":12570,"ger\n":12571,"▁talen":12572,":04\n":12573,"▁Pengene":12574,"▁Microsoft":12575,"▁from":12576,"sat":12577,"▁arm":12578,"▁triv":12579,"▁innslag":12580,"▁slåss":12581,"▁«J":12582,"▁Wolf":12583,"bane.\n":12584,"UNN":12585,"timeter":12586,"▁datam":12587,"SE":12588,"ving":12589,"▁77":12590,"sarbeid":12591,"▁utgifter":12592,"▁kommer.\n":12593,"▁TT":12594,"▁08:2":12595,"▁fjord":12596,"sko":12597,"▁Ulykken":12598,"▁ET":12599,"▁fram.\n":12600,"onsul":12601,"skift":12602,"festivalen":12603,"▁mamma":12604,"▁enn\n":12605,"taler":12606,"feller":12607,"▁etterforske":12608,"forslag":12609,"us'":12610,"▁hvorav":12611,"raph":12612,"olket":12613,"▁Sebasti":12614,"▁karrieren":12615,"▁salg\n":12616,"▁BMW":12617,"▁hjemme.\n":12618,"▁langvar":12619,"▁pian":12620,"▁Edvard":12621,"leb":12622,"reise":12623,"▁Nord-I":12624,"▁behandlingen":12625,"▁gjens":12626,"▁dyrere":12627,"cen":12628,"▁aktor":12629,"erne,":12630,"▁statsadvokat":12631,"arar\n":12632,"/D":12633,"▁lastebil":12634,"▁Eggen":12635,"verk\n":12636,"▁69":12637,":08\n":12638,"ktivt":12639,"▁utvist":12640,"▁bordet":12641,"▁komprom":12642,"ester\n":12643,"skapet.\n":12644,"OT":12645,"▁bevæp":12646,"▁rednings":12647,"ØY":12648,"▁Way":12649,"▁p\n":12650,"-sjefen":12651,"▁Trumps":12652,"▁sies":12653,"jed":12654,"anse.\n":12655,"▁O.":12656,"▁Engine\n":12657,"▁1992":12658,"▁Stavanger,":12659,"▁Lee":12660,"▁høyst":12661,"sdal":12662,"tok":12663,"▁retter":12664,"▁bransjen":12665,"▁eksam":12666,"▁Apple":12667,"▁oljef":12668,"flikt":12669,"▁Brad":12670,"▁Gamst":12671,"▁Helle":12672,"▁Vard":12673,"▁hjemmekamp":12674,"▁Freder":12675,"plett":12676,"▁pul":12677,".05.2008":12678,"▁omstridte":12679,"▁verdenscupen":12680,"▁to,":12681,"AB":12682,"/Sc":12683,"▁fryktet":12684,"▁Kevin":12685,"▁slipp":12686,"OC":12687,"▁fordelt":12688,"ituasjon":12689,"▁ordningen":12690,"▁Corn":12691,"esdal":12692,"▁autor":12693,"▁flyplass":12694,"▁interesser":12695,"▁mulighetene":12696,"aven":12697,"▁Mål:":12698,"▁provinsen":12699,"▁denne\n":12700,"bransjen":12701,"▁iP":12702,"▁sterkeste":12703,"▁indik":12704,"▁faktum":12705,"divisjon":12706,"▁oppmerksom":12707,"mann,":12708,"▁blomster":12709,"▁Fern":12710,"▁Bruk":12711,"▁irakiske":12712,"▁sover":12713,"▁vend":12714,"▁dir":12715,"▁Jordan":12716,"▁fantastiske":12717,"▁Belgia":12718,"▁fattigdom":12719,"▁Leder\n":12720,"▁tjent":12721,"sey":12722,"▁Artikk":12723,"▁MED":12724,"jeneste":12725,"▁jobben.\n":12726,"▁Europe":12727,"meldinger":12728,"▁sykehus.\n":12729,"▁Marte":12730,"kontroll":12731,"tinn":12732,"▁Glob":12733,"▁matem":12734,"kningen":12735,"▁belg":12736,"▁(W":12737,"rygd":12738,"▁Sovjetunion":12739,"▁sparket":12740,"-meter":12741,"etnam":12742,"▁har.\n":12743,"▁skadene":12744,"afé":12745,"▁centimeter":12746,"▁møn":12747,"resultatet":12748,"▁ledige":12749,"▁11:3":12750,"▁5)":12751,"▁merk":12752,"AC":12753,"▁abort":12754,"F)":12755,"▁C.":12756,"▁Tilsku":12757,"▁voldsom":12758,"▁Eliteserien":12759,"▁Tran":12760,"P\n":12761,"▁østerrik":12762,"▁Audun":12763,"-tap":12764,"▁Tone":12765,"▁Daily":12766,"▁visepresident":12767,"▁populært":12768,"▁tverr":12769,"EIN":12770,"iff":12771,"▁Gjør":12772,"▁dekker":12773,"▁tyrkiske":12774,"▁tort":12775,"▁omstendighet":12776,"33":12777,".03.2008":12778,"▁import":12779,"spolitikk":12780,"▁Sentrum":12781,"sutøver":12782,"▁unød":12783,"▁mørk":12784,"orp":12785,"▁riktige":12786,"by\n":12787,"last":12788,"ae\n":12789,"▁bakgrunnen":12790,"▁UT!\n":12791,"▁TIPS!\n":12792,"HET":12793,"alitet.\n":12794,"▁Scott":12795,"▁Men\n":12796,"▁BI":12797,"▁CD":12798,"igen":12799,"vision":12800,"▁sjefen":12801,"▁paret":12802,"▁kolleger":12803,"▁Svendsen":12804,"vask":12805,"▁Frankrike\n":12806,"magasin":12807,"oler":12808,"▁dagers":12809,"x,":12810,"▁Tiden":12811,"skrifter":12812,"▁nes":12813,"▁Capp":12814,"kket.\n":12815,"▁eiendoms":12816,"▁Gun":12817,"ugoslav":12818,"▁Solbakken":12819,"▁Barent":12820,"▁Bjørg":12821,"▁nyheten":12822,"▁aksj":12823,"▁Helg":12824,"▁betydelige":12825,"▁millioner.\n":12826,"▁ting,":12827,"▁Dagbladet):":12828,"▁løftet":12829,"▁bilen,":12830,"rine":12831,"smarked":12832,"▁arbeid.\n":12833,"mat":12834,"▁Skottland":12835,"▁sekt":12836,"▁Wen":12837,"▁kontroversi":12838,"sregjer":12839,"trener":12840,"▁psykolog":12841,"▁Benj":12842,"▁innsatsen":12843,"▁seksuell":12844,"elde":12845,"▁grovt":12846,"▁Göteborg":12847,"▁fremstår":12848,"▁Meg":12849,"▁fornuftig":12850,"-tal":12851,"▁AB":12852,"▁skifte":12853,"▁her:":12854,"▁helikop":12855,"▁gradvis":12856,"▁8.\n":12857,"▁oppsto":12858,"FT":12859,"▁usikkerhet":12860,"giften":12861,"▁trapp":12862,"▁Jagland":12863,"▁Spe":12864,"ci":12865,"▁manag":12866,"▁Color":12867,"ffek":12868,"▁Vind":12869,"▁Henriksen":12870,"▁ordentlig":12871,"▁utvikler":12872,"hjul":12873,"▁separ":12874,"▁syriske":12875,"▁Linda":12876,"▁ansatte.\n":12877,"▁akutt":12878,"▁Ivan":12879,"▁bosatt":12880,"elt,":12881,"AMM":12882,"▁nettstedet":12883,"▁forskjeller":12884,"▁måneders":12885,"▁uv":12886,"▁forurens":12887,"▁drivstoff":12888,"▁midtstopp":12889,"▁allmenn":12890,"▁hån":12891,"▁Angeles":12892,"▁Cecilie":12893,"men\n":12894,"▁Feder":12895,"▁lag,":12896,"▁sikkerheten":12897,"▁Trygve":12898,"▁Stats":12899,"▁Had":12900,"▁Ullevaal":12901,"▁Bend":12902,"▁Hund":12903,"kunst":12904,"tiltak":12905,"▁framover":12906,"spolitiske":12907,"▁kravene":12908,"45":12909,"ometer":12910,"-mål":12911,"▁Toy":12912,"wich":12913,"-Erik":12914,"/SCANPIX":12915,"▁ukjente":12916,"▁finger":12917,"elefoner":12918,"▁prinsipp":12919,"▁skot":12920,"▁900":12921,"uttene":12922,"▁side,":12923,"følgende":12924,"▁feiret":12925,"▁78":12926,"anes":12927,"anden":12928,"▁+47":12929,"▁ulik":12930,"▁NA24":12931,"▁hvile":12932,"▁muslimer":12933,"▁kaos":12934,"pert":12935,"▁smerte":12936,"asen":12937,"agram":12938,"▁reaksjoner":12939,"ussland":12940,"▁dollar,":12941,"▁oppkjøp":12942,"▁Organis":12943,"▁farger":12944,"▁frivillig":12945,"▁FRA":12946,"▁erstattet":12947,"▁Isak":12948,"EDER":12949,"-200":12950,"stret":12951,"ous":12952,"▁Silje":12953,"INE":12954,"ner\n":12955,"▁Album":12956,"▁09:3":12957,"råket":12958,"▁Kripos":12959,"▁Kinas":12960,"▁grunnlov":12961,"▁Sloven":12962,"▁motiver":12963,"▁Sandberg":12964,"▁tlf":12965,"itter.\n":12966,"▁underskudd":12967,"▁Fremskrittspartiet":12968,"▁varsel":12969,"by,":12970,"▁beskyttet\n":12971,"▁Nest":12972,"▁CD-":12973,"▁kamera":12974,"▁planlagte":12975,"GEN":12976,"▁VM.\n":12977,"lagt.\n":12978,"▁Egg":12979,"ton\n":12980,"▁alt.\n":12981,":07\n":12982,"▁menn.\n":12983,"sløp":12984,"▁infra":12985,"rive":12986,"▁Kam":12987,"fisk":12988,"▁4664":12989,"▁oppover":12990,"▁aksjonær":12991,"▁oppfordret":12992,"▁austral":12993,"▁2002\n":12994,"▁160":12995,"spill.\n":12996,"▁Hart":12997,"▁Egypt":12998,"▁tolk":12999,"▁ødeleg":13000,"elte":13001,"▁Myhre":13002,"▁Indi":13003,"▁Institutt":13004,"▁tusenvis":13005,"▁savnede":13006,"mert":13007,"▁oppført":13008,"▁Akt":13009,"▁Russland,":13010,"sprodu":13011,"▁sens":13012,"-Ag":13013,"▁Navar":13014,"▁skinn":13015,"▁ringer":13016,"▁Ytter":13017,"elius":13018,"▁Hamar":13019,"▁pus":13020,"▁EGON":13021,"ravær":13022,"▁369\n":13023,"▁Legg":13024,"banken":13025,"▁Mohammed":13026,"ful":13027,"▁Patrick":13028,"▁NÅ":13029,"▁Mj":13030,"aser":13031,"▁Festival":13032,"war":13033,"▁Bull":13034,"områder":13035,"sporten":13036,"▁Ellen":13037,"▁favor":13038,"▁kongen":13039,"▁dollar.\n":13040,"▁Mads":13041,"▁Bad":13042,"▁Industri":13043,"inspektør":13044,"▁Jem":13045,"▁Die":13046,"▁oppfatning":13047,"id.\n":13048,"▁røk":13049,"industrien":13050,"▁Danmark.\n":13051,"▁Frankrike,":13052,"opptak":13053,"stin":13054,":09\n":13055,"▁Monica":13056,"▁kvinner\n":13057,"▁treningskamp":13058,"▁seinere":13059,"▁foreligger":13060,"▁mellom\n":13061,"▁fortid":13062,"▁kalde":13063,"-manager":13064,"▁Aksel":13065,"tv":13066,"▁spenning":13067,"▁bak.\n":13068,"▁Set":13069,"▁Norde":13070,"▁spesiali":13071,"▁rol":13072,"▁Camilla":13073,"rer\n":13074,"▁hud":13075,"▁kombinasjon":13076,"▁likte":13077,"ARD":13078,"▁Americ":13079,"▁bortsett":13080,"▁fengslet":13081,"logg":13082,"BI":13083,"▁bryr":13084,"string":13085,"oping":13086,"▁kaster":13087,"infl":13088,"▁tilrett":13089,"▁Gry":13090,"▁Grande":13091,"▁tips@fvn.no\n":13092,"▁Gardermoen":13093,"▁London,":13094,"ope":13095,"▁Idol":13096,"eldige":13097,"▁integrer":13098,"▁Francis":13099,"▁perman":13100,"▁Bow":13101,"▁Teater":13102,"▁ild":13103,"ela":13104,"▁fasc":13105,"▁flinke":13106,"▁særskilt":13107,"▁hender":13108,"▁Aftenbladet.\n":13109,"elt\n":13110,"ssaken":13111,"bruddet":13112,"sprang":13113,"▁Club":13114,"▁Will":13115,"▁P.":13116,"▁kommenter":13117,"▁ambassadør":13118,"▁låter":13119,"▁forventninger":13120,"sberetning":13121,"▁1993":13122,"▁JOH":13123,"▁partner":13124,"▁treff":13125,"▁reform":13126,"▁vinteren":13127,"▁Radio":13128,"▁fep":13129,"▁Annonse\n":13130,"▁konkurrans":13131,"▁sof":13132,"▁jakten":13133,"▁da.\n":13134,"isipl":13135,"▁beskyttet":13136,"▁Saint":13137,"kester":13138,"▁Haugen":13139,"▁Steen":13140,"rahim":13141,"arter":13142,"▁redaksjon:\n":13143,"▁Administrerende":13144,"▁kant":13145,"▁07:5":13146,"▁Johnny":13147,"▁76":13148,"▁FVTIPS\n":13149,"▁sjekket":13150,"▁fep@fvn.no\n":13151,"etilsyn":13152,"▁Stu":13153,"▁sørger":13154,"ver\n":13155,"ene,\n":13156,"▁fryktelig":13157,"▁naturligvis":13158,"▁svin":13159,"▁Did":13160,"ada":13161,"▁08:1":13162,"pol":13163,"håpentlig":13164,"▁sentralbord:\n":13165,"▁patrul":13166,"▁pause.\n":13167,"▁350":13168,"▁O'":13169,"▁DEB":13170,"ating":13171,"▁tredjeplass":13172,"▁parall":13173,"▁hæren":13174,"▁Aut":13175,"▁Moen":13176,"án":13177,"▁Årsberetning":13178,"▁bygde":13179,"eman":13180,"▁presenterte":13181,"▁valg.\n":13182,"▁anklager":13183,"▁investeringer":13184,"▁måling":13185,"▁statisti":13186,"▁Bert":13187,"▁oppdrett":13188,"▁skjedd.\n":13189,"▁konsekvensene":13190,"▁Mikael":13191,"▁Rest":13192,"appe":13193,"▁forbli":13194,"fritt":13195,"▁14\n":13196,"▁Mourinho":13197,"▁Ull":13198,"▁Chic":13199,"▁Ting":13200,"▁hotellet":13201,"▁brenn":13202,"elegg":13203,"▁vand":13204,"▁skaffet":13205,"▁multimedia":13206,"▁SSB":13207,"▁Dagbladets":13208,"▁Karlsen":13209,"▁noe\n":13210,"▁HA":13211,"▁leter":13212,"▁Hi":13213,"▁hvitt":13214,"▁kalla":13215,"▁reder":13216,"athan":13217,"▁München":13218,"▁entus":13219,"▁skild":13220,".,":13221,"▁Ving":13222,"▁13\n":13223,"wid":13224,"▁15\n":13225,"1),":13226,"▁asylsøkere":13227,"▁synger":13228,"▁spen":13229,"▁Brat":13230,"▁ekstraordin":13231,"▁Divisjon":13232,"▁sjekk":13233,"OND":13234,"▁Amerikanske":13235,"deltak":13236,"▁2000.\n":13237,"▁stål":13238,"▁verden\n":13239,"▁ambassaden":13240,"▁voldsomt":13241,"▁Lam":13242,"▁bare\n":13243,"-Oppdatert:\n":13244,"skost":13245,"mens":13246,"▁trær":13247,"▁José":13248,"▁klo":13249,"▁Klikk":13250,"kvarter":13251,"▁UDI":13252,"ferdighet":13253,"ed\n":13254,"lu":13255,"▁portefølje\n":13256,"▁arkiv":13257,"▁naboland":13258,"▁glipp":13259,"▁uttaler":13260,"geb":13261,"▁Kath":13262,"▁Husse":13263,"▁anklaget":13264,"▁parad":13265,"▁leker":13266,"▁passasjerene":13267,"▁Arth":13268,"▁produsere":13269,"▁Thorbjørn":13270,"▁inngår":13271,"▁kvadratmeter":13272,"▁borg":13273,"▁Benjamin":13274,"▁trøbbel":13275,"pensjon":13276,"▁noen\n":13277,"▁Aps":13278,"▁Hauge":13279,"▁Mette-Marit":13280,"\">\n":13281,"bb":13282,"▁sørlige":13283,"▁artister":13284,"▁mannlige":13285,"▁kvitt":13286,"▁innledet":13287,"▁Sju":13288,"▁Fjordane":13289,"▁nedtur":13290,"åten":13291,"ksib":13292,"▁Markus":13293,"▁Eliteseri":13294,"▁utsette":13295,"▁FK":13296,"▁fed":13297,"▁kjæresten":13298,"iminister":13299,"▁næringslivet":13300,"▁Statistisk":13301,"rekker":13302,"▁veit":13303,"▁trak":13304,"dels":13305,"▁venstres":13306,"▁teller":13307,"▁«O":13308,"▁annet.\n":13309,"▁%\n":13310,"▁tilfellet":13311,"▁enhet":13312,"▁2010\n":13313,"▁perspektiv":13314,"▁Ug":13315,"▁nevne":13316,"ur,":13317,"aptein":13318,"▁vokst":13319,"▁pakist":13320,"▁Kabul":13321,"▁hang":13322,"atten":13323,"DS":13324,"-lista":13325,"▁Sivert":13326,"staden":13327,"▁etappe":13328,"▁1900":13329,"▁millionar":13330,"▁menneskene":13331,"nø":13332,"▁nokre":13333,"iks":13334,"▁Bort":13335,"▁pleier":13336,"▁innlegg.\n":13337,"srapport":13338,"▁Trolig":13339,"▁Øvre":13340,"▁Endelig":13341,"▁omgiv":13342,"hat":13343,"ula":13344,"IC":13345,"▁språkbruk.\n":13346,"øya.\n":13347,"▁visse":13348,"▁Secu":13349,"▁tillatelse":13350,"▁akadem":13351,"▁PDF":13352,"▁plikt":13353,".09.2008":13354,"forstå":13355,"▁være.\n":13356,"▁studier":13357,"stab":13358,"▁elen":13359,"▁0-2":13360,"▁Google":13361,"▁Medalje":13362,"elv":13363,"▁GR":13364,"iden.\n":13365,"▁humanit":13366,"▁SL":13367,"▁ulovlige":13368,"▁Rekord":13369,"▁Beat":13370,"▁Tyskland\n":13371,"▁Mobil":13372,"▁signert":13373,"▁knapp":13374,"▁utvide":13375,"▁håpe":13376,"▁skum":13377,"▁Amundsen\n":13378,"▁stim":13379,"▁regelverk":13380,"▁dronning":13381,"▁kår":13382,"kkup":13383,"▁begj":13384,"▁#«":13385,"▁leste":13386,"▁sjøen":13387,"▁desper":13388,"▁12:3":13389,"▁tjenesten":13390,"▁fril":13391,"▁KON":13392,"▁T-":13393,"▁lit":13394,"lav":13395,"▁aksjene":13396,"▁Næ":13397,"▁White":13398,"pan":13399,"▁talt":13400,"svold":13401,"fjord\n":13402,"fullt":13403,".08.2008":13404,"man,":13405,"-v":13406,"show":13407,"▁forestil":13408,"▁Haf":13409,":06\n":13410,"orske":13411,"ig,":13412,"▁KRISTIANSAND:\n":13413,"▁Vall":13414,"▁batter":13415,"▁Ukens":13416,"▁påvirker":13417,"▁eksist":13418,"▁inngå":13419,"ristian":13420,"IND":13421,"▁utgave":13422,"klassen":13423,"meng":13424,"sgren":13425,"jen,":13426,"▁oppsiktsv":13427,"gang.\n":13428,"▁grønt":13429,"rolle":13430,"▁gun":13431,"▁latt":13432,"▁utslag":13433,"▁dannet":13434,"▁hjem,":13435,"▁Staten":13436,"xt":13437,"▁tegnet":13438,"▁varmt":13439,"ulen":13440,"løy":13441,"orsy":13442,"▁politimann":13443,"▁overtar":13444,"æh":13445,"▁hun\n":13446,"▁EM-":13447,".08.2009":13448,"▁oppførsel":13449,"▁israelsk":13450,"ensive":13451,"otisk":13452,"ffekt":13453,"ant,":13454,"▁to\n":13455,"elighet":13456,"akket":13457,"BL":13458,"a)\n":13459,"▁Senterparti":13460,"ORTRETT":13461,"IKK":13462,"▁(197":13463,"ble":13464,"dust":13465,"▁Jackson":13466,"▁500\n":13467,"plassen.\n":13468,"kong":13469,"▁Center":13470,"▁langt.\n":13471,"▁medan":13472,"▁Sandvik":13473,"▁roll":13474,"▁R.":13475,"punkter":13476,"▁arena":13477,"▁feire":13478,"▁hjelp.\n":13479,"▁bankene":13480,"▁semifinalen":13481,"son.\n":13482,"2),":13483,"▁Spon":13484,"mennene":13485,"▁henvendelser":13486,"▁ske":13487,"▁Kost":13488,"▁Lah":13489,"▁forlatt":13490,"▁Ragnhild":13491,"35":13492,"▁sin\n":13493,"▁samboer":13494,"▁overleve":13495,"-10":13496,"kta":13497,"umf":13498,"▁Sunnmøre":13499,"4),":13500,"▁rommet":13501,"▁Jerusale":13502,"▁eksemplar":13503,"udde":13504,"▁vei.\n":13505,"▁omkomne":13506,"abler":13507,"kil":13508,"▁Armstron":13509,"▁VAR":13510,"▁lykkelig":13511,"▁pressekonferansen":13512,"▁redigere\n":13513,"sten,":13514,"▁Stavanger\n":13515,"▁(h":13516,"sfar":13517,"able":13518,"▁bekreft":13519,"▁hastighet":13520,"▁styremedlem":13521,"▁nyheter@fvn.no":13522,"▁skarp":13523,"fi":13524,"▁annon":13525,"▁merkelig":13526,"▁nett@fvn.no":13527,"▁Bjørndalen":13528,"▁hef":13529,"▁ned\n":13530,"▁topps":13531,"skad":13532,"▁Tomas":13533,"▁livet,":13534,"arch":13535,"▁SVs":13536,"kkene":13537,"▁Mir":13538,"▁Drillo":13539,"▁Invest":13540,"▁12.\n":13541,"ttene":13542,"▁Hang":13543,"▁Colomb":13544,"ocument":13545,"amerikanske":13546,"▁søppel":13547,"▁reklame":13548,"\",\n":13549,"zer":13550,"▁elv":13551,"▁ennå,":13552,"▁Sud":13553,"▁forberede":13554,"▁IM":13555,"▁spent":13556,"▁innkjøp":13557,"▁greide":13558,"▁Danske":13559,"▁Pra":13560,"▁TV-kan":13561,"▁beste.\n":13562,"tit":13563,"ardo":13564,"bur":13565,"▁Ål":13566,"▁motsatte":13567,"▁uttale":13568,"▁Beijing":13569,"▁deilig":13570,"▁kaldt":13571,"▁16\n":13572,"▁Sånn":13573,"gne":13574,"DEL":13575,"▁Salg":13576,"▁origin":13577,"ternativ":13578,"aksep":13579,"▁Braathens":13580,"▁FVTIPS":13581,"▁Fisker":13582,"▁titall":13583,"▁FR":13584,"▁besøke":13585,"▁Nasjonal":13586,"win":13587,"▁fanger":13588,"▁midnatt":13589,"heim,":13590,"▁multimedia:\n":13591,"▁bonus":13592,"video":13593,"and,":13594,"radio":13595,"▁sammenstøt":13596,"▁Voss":13597,"▁avhørt":13598,"ref":13599,"▁07:4":13600,"▁Tusen":13601,"öl":13602,".11.2007\n":13603,"gjøring":13604,"▁bringe":13605,"▁Sid":13606,"doms":13607,"▁Gyl":13608,"▁Merkel":13609,"mentet":13610,"▁Interaktiv\n":13611,"▁Cost":13612,"▁nederlag":13613,"▁kyrk":13614,"▁areal":13615,"81":13616,"▁EP":13617,"▁Frankrike.\n":13618,"▁problemer.\n":13619,"repren":13620,"vider":13621,"▁Fisk":13622,"▁stilles":13623,"▁Christensen":13624,"alåm":13625,"▁Region":13626,"sbrev":13627,"søkt":13628,"▁særdeles":13629,"▁hans,":13630,"▁fund":13631,"▁Dere":13632,"▁gris":13633,"bygget":13634,"ool":13635,"▁byene":13636,"bod":13637,"▁trengs":13638,"▁hjemmet":13639,"▁ork":13640,"▁norge":13641,"▁menn,":13642,"▁situasjonen.\n":13643,"je,":13644,".12.2007\n":13645,"▁Meninger":13646,"▁avdekket":13647,"▁deg,":13648,"gården":13649,"▁Anth":13650,"▁former":13651,"ieren":13652,"▁norske\n":13653,"▁sommeren.\n":13654,"▁tydeligvis":13655,"▁England.\n":13656,"-aksj":13657,"let.\n":13658,"▁klassiske":13659,"jemark":13660,"deller":13661,"▁Aldri":13662,"▁leke":13663,"▁lenge,":13664,"▁Lun":13665,"skiftet":13666,"▁Oks":13667,"politikk":13668,"riksminister":13669,"▁Rud":13670,"▁Situasjonen":13671,"▁(og":13672,"JE":13673,"Kam":13674,"▁benytter":13675,"▁mann.\n":13676,"▁Internett":13677,"▁orde":13678,"▁by:":13679,"fru":13680,"15,":13681,"▁Båt":13682,"▁sver":13683,"lene.\n":13684,"p.\n":13685,"▁stup":13686,"▁MERK:":13687,"istene\n":13688,"▁ekteskap":13689,"▁Bulgar":13690,"▁bass":13691,"▁Babybilder":13692,"▁DET":13693,"▁Pin":13694,"kled":13695,"▁fredagens":13696,"appet":13697,"▁eksklus":13698,"▁Kommer":13699,"▁troppen":13700,"▁(t.v.)":13701,"rakter":13702,"▁Hai":13703,"▁sms":13704,"armen":13705,"▁samlede":13706,"svoll":13707,"▁Hæ":13708,"▁vegvesen":13709,"▁f.K":13710,"▁Aftenposten.no":13711,"▁Cer":13712,"-er":13713,"▁Lik":13714,"▁anslår":13715,"atal":13716,"ers\n":13717,"▁Rol":13718,"klaring":13719,"▁skilt":13720,"attes":13721,"▁Kristoff":13722,"▁betaling":13723,"▁rundt\n":13724,"▁Konkur":13725,"▁folks":13726,"▁15.\n":13727,"▁avkast":13728,"▁?\n":13729,"▁Dron":13730,"▁inkluderer":13731,"▁Ibrahim":13732,"mad":13733,"▁2019":13734,"▁rettes":13735,"ommet.\n":13736,"▁Berge":13737,"▁unna.\n":13738,"▁Grimstad":13739,"▁sitt.\n":13740,"▁(«":13741,"iens":13742,"ønner":13743,"▁smør":13744,"▁182":13745,"ssjefen":13746,"▁Håper":13747,"▁inten":13748,"▁vende":13749,"▁hed":13750,"▁2017.\n":13751,"▁fungere":13752,"▁ansiktet":13753,"▁17.\n":13754,"▁viktig.\n":13755,"▁Storslett":13756,"▁****":13757,"▁tegn.)":13758,"▁Lak":13759,"▁boik":13760,"rakten":13761,"▁tsj":13762,"▁hat":13763,"institutt":13764,"▁nasjonalt":13765,"lus":13766,"▁Markets":13767,"▁liga":13768,".06.2008":13769,"▁psykiske":13770,"▁Jørn":13771,"▁utelukker":13772,"akseptab":13773,"stille":13774,"▁repar":13775,"▁utgift":13776,"▁sjokker":13777,"▁Les\n":13778,"▁farge":13779,"▁Jostein":13780,"▁drøye":13781,".08.01":13782,"▁måned.\n":13783,"uri":13784,"klet":13785,"▁Fest":13786,"▁nordlige":13787,"▁gammelt":13788,"▁sponsor":13789,"▁garderob":13790,"▁2009\n":13791,"▁County":13792,"sår":13793,"▁antatt":13794,"▁ytringsfri":13795,"net.\n":13796,"xit":13797,"▁Indones":13798,"▁Arena":13799,"▁omf":13800,"G\n":13801,"▁Gand":13802,"▁Mennes":13803,"området.\n":13804,"▁Hass":13805,"▁hj":13806,"▁Steph":13807,"▁il":13808,"▁brannvesenet":13809,"▁innflytelse":13810,"orgen":13811,"▁utbredt":13812,"▁langsiktig":13813,"3),":13814,"▁utbytte":13815,"skilder":13816,"▁Gamle":13817,"▁;}":13818,"▁«W":13819,"▁evakuert":13820,"▁3,5":13821,"▁framfor":13822,"eide":13823,"▁klage":13824,"ring,":13825,"▁DEBAT":13826,"emål":13827,"▁sesong,":13828,"--------":13829,"▁13.\n":13830,"▁signaler":13831,"endens":13832,"▁utgiv":13833,"▁Christer":13834,"▁adgang":13835,"dommen":13836,"und\n":13837,"esj":13838,"ov,":13839,"▁ASA":13840,"▁ødelag":13841,"▁kam":13842,"▁Nordly":13843,"▁hjemmelag":13844,"▁Herman":13845,"givere":13846,"▁reiseliv":13847,"eid":13848,"▁kv.\n":13849,"▁konkurrere":13850,"▁overgangen":13851,"splass":13852,"▁si.\n":13853,"▁kritisert":13854,"▁strekker":13855,"▁mannens":13856,"▁Storebrand":13857,"▁Svol":13858,"▁Land\n":13859,"▁Sør-Korea":13860,"ovasjon":13861,"▁svekket":13862,"naden":13863,"▁Elin":13864,"▁avtaler":13865,"▁cm":13866,"▁(b":13867,"▁utnevnt":13868,"åføren":13869,"ego":13870,"▁gammel.\n":13871,"▁Bundes":13872,"▁Cole":13873,"▁sørvest":13874,"▁August":13875,"▁vedtaket":13876,"personell":13877,"▁Dagbladet.no.\n":13878,"▁fravær":13879,"▁web-t":13880,"pend":13881,"▁direkte\n":13882,"UT":13883,"▁rundt.\n":13884,"▁støy":13885,"heten,":13886,"▁desig":13887,"kutt":13888,"▁oftest":13889,"▁Az":13890,"maskin":13891,"▁siden\n":13892,"▁24\n":13893,"▁Folkeparti":13894,"▁manglet":13895,"▁tåler":13896,"▁FVN":13897,"▁rov":13898,"▁1991":13899,"▁(@":13900,"renes":13901,"▁oppfattet":13902,"▁mai,":13903,"▁Rød\n":13904,"▁Powered":13905,"▁74":13906,"▁Hege":13907,"cc":13908,"▁trykket":13909,"▁dømme":13910,"▁Sri":13911,"elger":13912,"finalen":13913,"▁beskjeden":13914,"▁stry":13915,"▁inspirert":13916,"▁utle":13917,"▁Smått":13918,"a)":13919,"▁Lør":13920,"▁eksisterende":13921,"tid.\n":13922,"▁deles":13923,"▁vidare":13924,"▁nevnte":13925,"ant.\n":13926,"▁innvandrere":13927,"▁140":13928,"▁(ANB-AP":13929,"art\n":13930,"alistiske":13931,"▁ordin":13932,"▁bokstav":13933,"stjeneste":13934,"aton":13935,"▁friske":13936,"-PORTRETT":13937,"▁sne":13938,"▁VM-gull":13939,"▁størrelse":13940,"▁WEB-TV-PORTRETT":13941,"▁Skandinav":13942,"▁okkup":13943,"▁Sat":13944,"▁halvannen":13945,"▁parlamentar":13946,"▁AP.\n":13947,"▁fornærmede":13948,"▁Danmark,":13949,"▁scoringer":13950,"▁foreta":13951,"▁debuterte":13952,"-sy":13953,"▁Trondheim,":13954,"▁kontrollen":13955,"mosf":13956,"▁etter,":13957,"-ledelsen":13958,"hal":13959,"bein":13960,"▁forhold.\n":13961,"▁kvinner,":13962,"-åringen,":13963,"veig":13964,"▁bakken.\n":13965,"▁elektronisk":13966,"målet":13967,"▁Sunder":13968,"▁heste":13969,"▁Alan":13970,"▁temp":13971,"▁angriper":13972,"▁Svolvær":13973,"▁km/t":13974,"▁raser":13975,"let\n":13976,"▁E6":13977,"hau":13978,"▁avgjorde":13979,"▁omkommet":13980,"▁sammen\n":13981,"▁Sjefredaktør:":13982,"▁medisinske":13983,"witter":13984,"▁timer.\n":13985,"▁boligen":13986,"▁Ern":13987,"GA":13988,"▁hoppe":13989,"▁grove":13990,"stemer":13991,"▁100\n":13992,"▁nytt,":13993,"▁Kjersti":13994,"wa":13995,"▁oss!\n":13996,"▁Edward":13997,"▁Toky":13998,"▁overført":13999,"▁61":14000,"▁spion":14001,"aktige":14002,"omo":14003,"ant\n":14004,"▁arbeidskraft":14005,"▁åra":14006,"▁personer.\n":14007,"▁forholdsvis":14008,"▁forhindre":14009,"▁3-2":14010,"avdeling":14011,"▁Øver":14012,"▁statens":14013,"▁medier.\n":14014,"▁Hotell":14015,"▁Kveld":14016,"▁bakter":14017,"▁fleksib":14018,"▁1999.\n":14019,"▁inf":14020,"▁teori":14021,"▁følelser":14022,"vogn":14023,"▁store,":14024,"bler":14025,"ad\n":14026,"myk":14027,"▁alt,":14028,"▁alderen":14029,"dagen":14030,"▁AM":14031,"▁Origo\n":14032,"▁Time":14033,"▁erstatter":14034,"▁kuttet":14035,"-EM":14036,"▁straffen":14037,"oped":14038,"▁sine,":14039,"▁Krekar":14040,"▁mektig":14041,"▁treneren":14042,"sjef,":14043,"▁Open":14044,"▁scene":14045,"▁Ofte":14046,"skvinne":14047,"▁Post-":14048,"▁alternati":14049,"▁pilot":14050,"fun":14051,"▁jus":14052,"▁oppgjøret":14053,"▁Innenriks\n":14054,"▁•":14055,"▁stammer":14056,"avdelingen":14057,"laus":14058,"vem":14059,"▁helses":14060,"rikes":14061,"▁Nord-Kore":14062,"▁brit":14063,"met,":14064,"▁heller.\n":14065,"▁Sub":14066,"▁henter":14067,"ridge":14068,"▁Mener":14069,"▁Beh":14070,"▁Midt-Norge":14071,"▁kret":14072,"▁Bendik":14073,"sjefen":14074,"▁tips@nordlys.no\n":14075,"ch\n":14076,"▁sikte":14077,"▁moro":14078,"▁NO":14079,"▁andelen":14080,"ede\n":14081,"▁hemmelige":14082,"▁Sab":14083,"▁reduserte":14084,"▁ektemann":14085,"▁Våre":14086,"▁Folket":14087,"▁tilbudt":14088,"▁personer,":14089,"▁fler":14090,"▁Drøm":14091,"gruppa":14092,"▁andres":14093,"ullah":14094,"▁fotball,":14095,"ET\n":14096,"-medlem":14097,"▁erob":14098,"siktige":14099,"▁toppscorer":14100,"-Amerik":14101,"▁inspirasjon":14102,"▁luksus":14103,"JØRN":14104,"▁hovedside":14105,"▁ofre":14106,"▁Foll":14107,"sen.":14108,"skomm":14109,"▁Relaterte":14110,"rot":14111,"▁slaget":14112,"95":14113,"▁fengsl":14114,"▁rocke":14115,"▁Tromsø,":14116,"▁Dale":14117,"ime":14118,"▁Bach":14119,"▁faglig":14120,"/Scanpix\n":14121,"▁Arctic":14122,"▁kommenterer":14123,"liste":14124,"▁oppvekst":14125,"▁TU":14126,"abe":14127,"revis":14128,"igator":14129,"fat":14130,"▁kortere":14131,"▁Kommuner":14132,"berget":14133,"▁-1":14134,"sten\n":14135,"▁inngang":14136,"▁termin":14137,"▁voldsomme":14138,"▁kren":14139,"▁hjertet":14140,"kreft":14141,"arl":14142,"▁stillinger":14143,"▁traf":14144,"▁Øvrig":14145,"▁onsdagens":14146,"▁Forsvarets":14147,"▁alarm":14148,"▁Tsjekkia":14149,"▁Født":14150,"▁konstaterer":14151,"institusjon":14152,"▁ubet":14153,"▁sed":14154,"▁Grunnen":14155,"▁Gerhard":14156,"▁heve":14157,"-lederen":14158,"▁utfordrer":14159,"▁regjeringen.\n":14160,"▁Tren":14161,"▁ID":14162,"▁Liste":14163,"▁dratt":14164,"mø":14165,"▁anslag":14166,"▁prop":14167,"deling\n":14168,"▁Valla":14169,"▁Gold":14170,"▁Afghanistan.\n":14171,"▁Bost":14172,"▁tilsier":14173,"▁fans":14174,"▁blokk":14175,"båten":14176,"▁Gru":14177,"su":14178,"▁kidnapp":14179,"▁kult":14180,"▁strø":14181,"▁(J":14182,"▁erklært":14183,"▁serb":14184,"▁døden":14185,"▁HamKam":14186,".000\n":14187,"▁*B":14188,".s":14189,"▁Reuters.\n":14190,"▁Bosn":14191,"▁dagene.\n":14192,"▁Lista":14193,"▁BA":14194,"▁da\n":14195,"aten.\n":14196,"yrkj":14197,"den,":14198,"team":14199,"▁skyting":14200,"▁effektive":14201,"▁Omdiriger":14202,"▁senere,":14203,"▁s.":14204,"▁kommunens":14205,"▁virkeligheten":14206,"▁støtten":14207,"▁sveits":14208,"▁leder,":14209,"tilli":14210,"sbet":14211,"▁Helen":14212,"æra":14213,"▁Fat":14214,"▁svakt":14215,"▁topper":14216,"▁Muham":14217,"▁offisielt":14218,"▁Mod":14219,"▁illust":14220,"▁toget":14221,"▁høyest":14222,"akh":14223,"▁skeptisk":14224,"▁demonstranter":14225,"▁bygging":14226,"▁væpnede":14227,"▁Straff":14228,"stedet.\n":14229,"▁Internasjonale":14230,"▁Slov":14231,"82":14232,"▁SU":14233,"▁entusias":14234,"▁forsvarsminister":14235,"▁humør":14236,"▁seg.":14237,"lish":14238,"▁gjaldt":14239,"-tre":14240,"▁Sur":14241,"bøker":14242,"▁ishockey":14243,"habili":14244,"▁Schum":14245,"▁Eksempel":14246,".07.2008":14247,"▁navng":14248,"sløse":14249,"▁skjult":14250,"▁Gaza":14251,"▁fett":14252,"▁util":14253,"▁Stand":14254,"▁Araf":14255,"▁170":14256,"▁diskriminer":14257,"▁justisminister":14258,"▁pub":14259,"▁TO":14260,"▁D.":14261,"');":14262,"iness":14263,"▁levde":14264,"▁endrer":14265,"▁midtbanespiller":14266,"▁klem":14267,"▁Zlatan":14268,"▁18\n":14269,"ocument.":14270,"▁OPP":14271,"▁jakter":14272,"▁Steven":14273,"▁(Fr":14274,"▁skiftet":14275,"▁konkurrent":14276,"▁07:2":14277,"▁gjennombrudd":14278,"alisjon":14279,"kraftig":14280,"▁Serge":14281,"▁Høgmo":14282,"▁Dessverre":14283,"▁Svindal":14284,"▁How":14285,"fravær":14286,"▁ordre":14287,"▁lederne":14288,"▁mottar":14289,"▁sport\n":14290,"▁*A":14291,"▁sult":14292,"▁terrorist":14293,"▁Jav":14294,"▁søvn":14295,"▁innsyn":14296,"▁kryss":14297,"▁Trønder":14298,"▁innlagt":14299,"▁eleg":14300,"▁stilling\n":14301,"▁død\n":14302,"▁storby":14303,"▁villige":14304,"▁danne":14305,"▁svikt":14306,"▁argument":14307,"▁observert":14308,"▁can":14309,"komite":14310,"▁Hansen.\n":14311,"▁sperret":14312,"▁2097":14313,"ollega":14314,"▁fredag\n":14315,"▁sommer,":14316,"▁gjennomføres":14317,"▁kroner.":14318,"▁slås":14319,"▁meningsmåling":14320,"▁Fren":14321,"▁skatter":14322,"sig":14323,"▁stemning":14324,"▁runder":14325,"LIG":14326,"▁fien":14327,"▁forsinkel":14328,"▁artig":14329,"presentant":14330,"▁Lenn":14331,"din":14332,"lot":14333,"▁still":14334,"▁Arve":14335,"▁Bryn":14336,"ktøy":14337,"▁berømte":14338,"e.":14339,"vittig":14340,"▁Dagbladet):\n":14341,"ew":14342,"eksten":14343,"mir":14344,"▁Alp":14345,"▁16.\n":14346,"▁forbryt":14347,"▁høsten.\n":14348,"▁Kvæ":14349,"▁slott":14350,"okratene":14351,"▁politikk.\n":14352,"▁gripe":14353,"än":14354,"▁lest\n":14355,"▁treffe":14356,"bild":14357,"▁overkant":14358,"▁knuste":14359,"Tr":14360,"▁Fel":14361,"▁jeg.\n":14362,"▁Stan":14363,"▁hodet.\n":14364,"▁usikkert":14365,"▁toal":14366,"▁News.\n":14367,"▁kjent.\n":14368,"▁tilknyttet":14369,"mann.\n":14370,"vende":14371,"▁lekk":14372,"ux":14373,"▁Annonser\n":14374,"▁Bloomberg":14375,"▁brenne":14376,"▁polske":14377,".10.2008":14378,"▁Reit":14379,"▁Professor":14380,"asjoner.\n":14381,"posten.no\n":14382,"brett":14383,"edisjon":14384,"▁Nettopp":14385,"▁Egen":14386,"▁skolen,":14387,"ang,":14388,"▁tabellen":14389,"ray":14390,"▁(Dagbladet):\n":14391,"loggen":14392,"▁leverandør":14393,"▁Boe":14394,"▁Argentina":14395,"▁Fædrelandsvennen":14396,"▁Oli":14397,"▁scorer":14398,"▁(t":14399,"▁idet":14400,"▁Williams":14401,"▁opplæring":14402,"▁studi":14403,"▁opprykk":14404,"denes":14405,"asson":14406,"talte":14407,"▁frie":14408,"▁forvir":14409,"cks":14410,"▁samme.\n":14411,"-kaptein":14412,"▁gravid":14413,"▁smart":14414,"-15":14415,"▁EU.\n":14416,"▁artikler":14417,"▁hendene":14418,"tish":14419,"rådgiver":14420,"▁Motor\n":14421,"▁Halling":14422,"sser":14423,"▁End":14424,"▁Robb":14425,"▁Hillary":14426,"▁takknem":14427,"▁Hurtig":14428,"▁Spart":14429,"▁18:4":14430,"▁hendelser":14431,"▁afghanske":14432,"▁egg":14433,"nda":14434,"▁svakere":14435,"▁trakt":14436,"▁CO2-":14437,"▁Utøver\n":14438,"JER":14439,"▁lønnsom":14440,"øft":14441,"die":14442,"ross":14443,"heim\n":14444,"▁union":14445,"▁nei.\n":14446,"▁dens":14447,"▁budsjettet":14448,"▁riksvei":14449,"▁Sør-Norge":14450,"issel":14451,"▁unik":14452,"▁9.\n":14453,"l\n":14454,"srådgiver":14455,"▁Tal":14456,"▁Arthur":14457,"▁klasser":14458,"▁tilskudd":14459,"lid":14460,"ttp://www.":14461,"▁sentralbyrå":14462,"▁Sosi":14463,"ublikken":14464,"▁mange,":14465,"jemper":14466,"▁sau":14467,"▁mill.":14468,"▁han.":14469,"intervju":14470,"▁Russland\n":14471,"▁Bedrift":14472,"▁I.":14473,"ville":14474,"▁gjennomfør":14475,"▁sted\n":14476,"▁FFK":14477,"ulære":14478,"▁veil":14479,"fare":14480,"▁etterspørsel":14481,"apparat":14482,"▁*M":14483,"▁avviste":14484,"▁with":14485,"▁glemme":14486,"▁forskerne":14487,"sjoner":14488,"seklepp":14489,"apost":14490,"▁Ele":14491,"▁Irak,":14492,"▁snudde":14493,"veksten":14494,"legging":14495,"▁Bug":14496,"alleri":14497,"▁hot":14498,"▁(m":14499,"rust":14500,"▁Lå":14501,"nytt":14502,"▁helga":14503,"▁statsborger":14504,"▁(VG)":14505,"▁Andersen.\n":14506,"▁class":14507,"▁Gje":14508,"▁ikke.":14509,"▁jø":14510,"▁mat,":14511,"▁akseptere":14512,"eren.\n":14513,"▁garantert":14514,"▁Huseklepp":14515,"valgte":14516,"hardt":14517,"▁fikk\n":14518,"▁Dødsfall":14519,"▁Toll":14520,"bladet.no\n":14521,"▁Fast":14522,"▁Wat":14523,"▁begrense":14524,"gått":14525,"tenes":14526,"▁representert":14527,"▁seinare":14528,"▁framover.\n":14529,"▁84":14530,"▁SE":14531,"▁G.":14532,"▁katolske":14533,"▁vår.\n":14534,"▁dim":14535,"▁jordskjelv":14536,"▁gjør.\n":14537,"▁Myndighetene":14538,"▁høydepunkt":14539,"▁regionale":14540,"▁utstyrt":14541,"▁Bergen\n":14542,"omet":14543,"▁meters":14544,"▁kostnadene":14545,"▁Barna":14546,".com\n":14547,"armer":14548,"ulykke\n":14549,"▁Sei":14550,"▁Lj":14551,"▁ungg":14552,"ENE":14553,"▁snudd":14554,"▁borte.\n":14555,"▁Hammerfest\n":14556,"roller":14557,"▁egyp":14558,"▁øyne":14559,"▁Janne":14560,"▁avslørt":14561,"▁hende":14562,"hold.\n":14563,"▁opphev":14564,"finans":14565,"▁IL\n":14566,"reisa":14567,"▁Krim":14568,"▁Vinn":14569,"▁innend":14570,"▁Regi:":14571,"▁Kina,":14572,"▁tillatt":14573,"▁valgkampen":14574,"▁prester":14575,"▁Venezuel":14576,"▁samarbeider":14577,"760\n":14578,"▁Rosenborg\n":14579,"▁på.":14580,"▁Kina.\n":14581,"▁fatt":14582,"svekst":14583,"▁Dah":14584,"▁feirer":14585,"▁Mary":14586,"▁Mattilsynet":14587,"▁interessen":14588,"▁Imp":14589,"odellen":14590,"▁raste":14591,"▁SAK":14592,"-20":14593,"▁AF":14594,"▁Borger":14595,"▁forårsaket":14596,"OF":14597,"▁Faren":14598,"▁Blom":14599,"▁dyreste":14600,"▁Afrika":14601,"sentral":14602,"▁50.000":14603,"▁Pres":14604,"▁Vester":14605,"▁Rooney":14606,"umin":14607,"▁Arbeiderpartiets":14608,"▁Lake":14609,"▁Bedre":14610,"▁museum":14611,"St":14612,"fødte":14613,".99":14614,"▁AS\n":14615,"▁Fall":14616,"ministeren":14617,"igator.":14618,"▁kald":14619,"▁ropte":14620,"▁Que":14621,"▁83":14622,"atert":14623,".),":14624,"▁veien,":14625,"▁styrtet":14626,"▁Stadig":14627,"sprin":14628,"▁infrastruktur":14629,"▁Flå":14630,"▁etterpå.\n":14631,"▁vog":14632,"▁Data":14633,"▁Mete":14634,"▁STE":14635,"▁Orkla":14636,"▁kommer,":14637,"Ã¥":14638,"aler,":14639,"BA":14640,"▁pågående":14641,"ringene":14642,"▁brun":14643,"▁Sor":14644,"ritt":14645,"▁III":14646,"▁sammenlik":14647,"▁14.\n":14648,"▁HV":14649,"iller,":14650,"▁sjåføren":14651,"lay":14652,"▁dags":14653,"▁løst":14654,"▁få\n":14655,"▁flyg":14656,"▁klipp":14657,"torg":14658,"▁respekter":14659,"▁alternative":14660,"▁informert":14661,
[...]
